const uint8_t sgemm_32x32x32_NN_sm_50[] = {
    0x7f, 0x45, 0x4c, 0x46, 0x02, 0x01, 0x01, 0x33, 0x07, 0x00, 0x00, 0x00,
    0x00, 0x00, 0x00, 0x00, 0x02, 0x00, 0xbe, 0x00, 0x50, 0x00, 0x00, 0x00,
    0x00, 0x00, 0x00, 0x00, 0x00, 0x00, 0x00, 0x00, 0xa0, 0x25, 0x00, 0x00,
    0x00, 0x00, 0x00, 0x00, 0x60, 0x23, 0x00, 0x00, 0x00, 0x00, 0x00, 0x00,
    0x32, 0x05, 0x32, 0x00, 0x40, 0x00, 0x38, 0x00, 0x03, 0x00, 0x40, 0x00,
    0x09, 0x00, 0x01, 0x00, 0x00, 0x2e, 0x73, 0x68, 0x73, 0x74, 0x72, 0x74,
    0x61, 0x62, 0x00, 0x2e, 0x73, 0x74, 0x72, 0x74, 0x61, 0x62, 0x00, 0x2e,
    0x73, 0x79, 0x6d, 0x74, 0x61, 0x62, 0x00, 0x2e, 0x73, 0x79, 0x6d, 0x74,
    0x61, 0x62, 0x5f, 0x73, 0x68, 0x6e, 0x64, 0x78, 0x00, 0x2e, 0x6e, 0x76,
    0x2e, 0x69, 0x6e, 0x66, 0x6f, 0x00, 0x2e, 0x74, 0x65, 0x78, 0x74, 0x2e,
    0x73, 0x67, 0x65, 0x6d, 0x6d, 0x5f, 0x33, 0x32, 0x78, 0x33, 0x32, 0x78,
    0x33, 0x32, 0x5f, 0x4e, 0x4e, 0x00, 0x2e, 0x6e, 0x76, 0x2e, 0x69, 0x6e,
    0x66, 0x6f, 0x2e, 0x73, 0x67, 0x65, 0x6d, 0x6d, 0x5f, 0x33, 0x32, 0x78,
    0x33, 0x32, 0x78, 0x33, 0x32, 0x5f, 0x4e, 0x4e, 0x00, 0x2e, 0x6e, 0x76,
    0x2e, 0x73, 0x68, 0x61, 0x72, 0x65, 0x64, 0x2e, 0x73, 0x67, 0x65, 0x6d,
    0x6d, 0x5f, 0x33, 0x32, 0x78, 0x33, 0x32, 0x78, 0x33, 0x32, 0x5f, 0x4e,
    0x4e, 0x00, 0x2e, 0x6e, 0x76, 0x2e, 0x63, 0x6f, 0x6e, 0x73, 0x74, 0x61,
    0x6e, 0x74, 0x30, 0x2e, 0x73, 0x67, 0x65, 0x6d, 0x6d, 0x5f, 0x33, 0x32,
    0x78, 0x33, 0x32, 0x78, 0x33, 0x32, 0x5f, 0x4e, 0x4e, 0x00, 0x00, 0x2e,
    0x73, 0x68, 0x73, 0x74, 0x72, 0x74, 0x61, 0x62, 0x00, 0x2e, 0x73, 0x74,
    0x72, 0x74, 0x61, 0x62, 0x00, 0x2e, 0x73, 0x79, 0x6d, 0x74, 0x61, 0x62,
    0x00, 0x2e, 0x73, 0x79, 0x6d, 0x74, 0x61, 0x62, 0x5f, 0x73, 0x68, 0x6e,
    0x64, 0x78, 0x00, 0x2e, 0x6e, 0x76, 0x2e, 0x69, 0x6e, 0x66, 0x6f, 0x00,
    0x73, 0x67, 0x65, 0x6d, 0x6d, 0x5f, 0x33, 0x32, 0x78, 0x33, 0x32, 0x78,
    0x33, 0x32, 0x5f, 0x4e, 0x4e, 0x00, 0x2e, 0x74, 0x65, 0x78, 0x74, 0x2e,
    0x73, 0x67, 0x65, 0x6d, 0x6d, 0x5f, 0x33, 0x32, 0x78, 0x33, 0x32, 0x78,
    0x33, 0x32, 0x5f, 0x4e, 0x4e, 0x00, 0x2e, 0x6e, 0x76, 0x2e, 0x69, 0x6e,
    0x66, 0x6f, 0x2e, 0x73, 0x67, 0x65, 0x6d, 0x6d, 0x5f, 0x33, 0x32, 0x78,
    0x33, 0x32, 0x78, 0x33, 0x32, 0x5f, 0x4e, 0x4e, 0x00, 0x2e, 0x6e, 0x76,
    0x2e, 0x73, 0x68, 0x61, 0x72, 0x65, 0x64, 0x2e, 0x73, 0x67, 0x65, 0x6d,
    0x6d, 0x5f, 0x33, 0x32, 0x78, 0x33, 0x32, 0x78, 0x33, 0x32, 0x5f, 0x4e,
    0x4e, 0x00, 0x24, 0x5f, 0x5f, 0x73, 0x68, 0x61, 0x72, 0x65, 0x5f, 0x5f,
    0x32, 0x36, 0x00, 0x2e, 0x6e, 0x76, 0x2e, 0x63, 0x6f, 0x6e, 0x73, 0x74,
    0x61, 0x6e, 0x74, 0x30, 0x2e, 0x73, 0x67, 0x65, 0x6d, 0x6d, 0x5f, 0x33,
    0x32, 0x78, 0x33, 0x32, 0x78, 0x33, 0x32, 0x5f, 0x4e, 0x4e, 0x00, 0x5f,
    0x70, 0x61, 0x72, 0x61, 0x6d, 0x00, 0x00, 0x00, 0x00, 0x00, 0x00, 0x00,
    0x00, 0x00, 0x00, 0x00, 0x00, 0x00, 0x00, 0x00, 0x00, 0x00, 0x00, 0x00,
    0x00, 0x00, 0x00, 0x00, 0x00, 0x00, 0x00, 0x00, 0x00, 0x00, 0x00, 0x00,
    0x44, 0x00, 0x00, 0x00, 0x03, 0x00, 0x07, 0x00, 0x00, 0x00, 0x00, 0x00,
    0x00, 0x00, 0x00, 0x00, 0x00, 0x00, 0x00, 0x00, 0x00, 0x00, 0x00, 0x00,
    0x77, 0x00, 0x00, 0x00, 0x03, 0x00, 0x08, 0x00, 0x00, 0x00, 0x00, 0x00,
    0x00, 0x00, 0x00, 0x00, 0x00, 0x00, 0x00, 0x00, 0x00, 0x00, 0x00, 0x00,
    0xa1, 0x00, 0x00, 0x00, 0x03, 0x00, 0x06, 0x00, 0x00, 0x00, 0x00, 0x00,
    0x00, 0x00, 0x00, 0x00, 0x00, 0x00, 0x00, 0x00, 0x00, 0x00, 0x00, 0x00,
    0x32, 0x00, 0x00, 0x00, 0x12, 0x10, 0x07, 0x00, 0x00, 0x00, 0x00, 0x00,
    0x00, 0x00, 0x00, 0x00, 0x80, 0x1e, 0x00, 0x00, 0x00, 0x00, 0x00, 0x00,
    0x04, 0x23, 0x08, 0x00, 0x04, 0x00, 0x00, 0x00, 0x00, 0x00, 0x00, 0x00,
    0x04, 0x12, 0x08, 0x00, 0x04, 0x00, 0x00, 0x00, 0x00, 0x00, 0x00, 0x00,
    0x04, 0x11, 0x08, 0x00, 0x04, 0x00, 0x00, 0x00, 0x00, 0x00, 0x00, 0x00,
    0x04, 0x0a, 0x08, 0x00, 0x03, 0x00, 0x00, 0x00, 0x40, 0x01, 0x40, 0x00,
    0x03, 0x19, 0x40, 0x00, 0x04, 0x17, 0x0c, 0x00, 0x00, 0x00, 0x00, 0x00,
    0x0c, 0x00, 0x3c, 0x00, 0x00, 0xf0, 0x11, 0x00, 0x04, 0x17, 0x0c, 0x00,
    0x00, 0x00, 0x00, 0x00, 0x0b, 0x00, 0x38, 0x00, 0x00, 0xf0, 0x11, 0x00,
    0x04, 0x17, 0x0c, 0x00, 0x00, 0x00, 0x00, 0x00, 0x0a, 0x00, 0x34, 0x00,
    0x00, 0xf0, 0x11, 0x00, 0x04, 0x17, 0x0c, 0x00, 0x00, 0x00, 0x00, 0x00,
    0x09, 0x00, 0x30, 0x00, 0x00, 0xf0, 0x11, 0x00, 0x04, 0x17, 0x0c, 0x00,
    0x00, 0x00, 0x00, 0x00, 0x08, 0x00, 0x2c, 0x00, 0x00, 0xf0, 0x11, 0x00,
    0x04, 0x17, 0x0c, 0x00, 0x00, 0x00, 0x00, 0x00, 0x07, 0x00, 0x28, 0x00,
    0x00, 0xf0, 0x11, 0x00, 0x04, 0x17, 0x0c, 0x00, 0x00, 0x00, 0x00, 0x00,
    0x06, 0x00, 0x24, 0x00, 0x00, 0xf0, 0x11, 0x00, 0x04, 0x17, 0x0c, 0x00,
    0x00, 0x00, 0x00, 0x00, 0x05, 0x00, 0x20, 0x00, 0x00, 0xf0, 0x11, 0x00,
    0x04, 0x17, 0x0c, 0x00, 0x00, 0x00, 0x00, 0x00, 0x04, 0x00, 0x1c, 0x00,
    0x00, 0xf0, 0x11, 0x00, 0x04, 0x17, 0x0c, 0x00, 0x00, 0x00, 0x00, 0x00,
    0x03, 0x00, 0x18, 0x00, 0x00, 0xf0, 0x11, 0x00, 0x04, 0x17, 0x0c, 0x00,
    0x00, 0x00, 0x00, 0x00, 0x02, 0x00, 0x10, 0x00, 0x00, 0xf0, 0x21, 0x00,
    0x04, 0x17, 0x0c, 0x00, 0x00, 0x00, 0x00, 0x00, 0x01, 0x00, 0x08, 0x00,
    0x00, 0xf0, 0x21, 0x00, 0x04, 0x17, 0x0c, 0x00, 0x00, 0x00, 0x00, 0x00,
    0x00, 0x00, 0x00, 0x00, 0x00, 0xf0, 0x21, 0x00, 0x03, 0x1b, 0xff, 0x00,
    0x04, 0x1d, 0x0c, 0x00, 0x18, 0x00, 0x00, 0x00, 0x28, 0x00, 0x00, 0x00,
    0x30, 0x00, 0x00, 0x00, 0x04, 0x1c, 0x04, 0x00, 0x10, 0x1b, 0x00, 0x00,
    0x01, 0x04, 0x00, 0x00, 0x04, 0x10, 0x0c, 0x00, 0x80, 0x00, 0x00, 0x00,
    0x01, 0x00, 0x00, 0x00, 0x01, 0x00, 0x00, 0x00, 0x00, 0x00, 0x00, 0x00,
    0x00, 0x00, 0x00, 0x00, 0x00, 0x00, 0x00, 0x00, 0x00, 0x00, 0x00, 0x00,
    0x00, 0x00, 0x00, 0x00, 0x00, 0x00, 0x00, 0x00, 0x00, 0x00, 0x00, 0x00,
    0x00, 0x00, 0x00, 0x00, 0x00, 0x00, 0x00, 0x00, 0x00, 0x00, 0x00, 0x00,
    0x00, 0x00, 0x00, 0x00, 0x00, 0x00, 0x00, 0x00, 0x00, 0x00, 0x00, 0x00,
    0x00, 0x00, 0x00, 0x00, 0x00, 0x00, 0x00, 0x00, 0x00, 0x00, 0x00, 0x00,
    0x00, 0x00, 0x00, 0x00, 0x00, 0x00, 0x00, 0x00, 0x00, 0x00, 0x00, 0x00,
    0x00, 0x00, 0x00, 0x00, 0x00, 0x00, 0x00, 0x00, 0x00, 0x00, 0x00, 0x00,
    0x00, 0x00, 0x00, 0x00, 0x00, 0x00, 0x00, 0x00, 0x00, 0x00, 0x00, 0x00,
    0x00, 0x00, 0x00, 0x00, 0x00, 0x00, 0x00, 0x00, 0x00, 0x00, 0x00, 0x00,
    0x00, 0x00, 0x00, 0x00, 0x00, 0x00, 0x00, 0x00, 0x00, 0x00, 0x00, 0x00,
    0x00, 0x00, 0x00, 0x00, 0x00, 0x00, 0x00, 0x00, 0x00, 0x00, 0x00, 0x00,
    0x00, 0x00, 0x00, 0x00, 0x00, 0x00, 0x00, 0x00, 0x00, 0x00, 0x00, 0x00,
    0x00, 0x00, 0x00, 0x00, 0x00, 0x00, 0x00, 0x00, 0x00, 0x00, 0x00, 0x00,
    0x00, 0x00, 0x00, 0x00, 0x00, 0x00, 0x00, 0x00, 0x00, 0x00, 0x00, 0x00,
    0x00, 0x00, 0x00, 0x00, 0x00, 0x00, 0x00, 0x00, 0x00, 0x00, 0x00, 0x00,
    0x00, 0x00, 0x00, 0x00, 0x00, 0x00, 0x00, 0x00, 0x00, 0x00, 0x00, 0x00,
    0x00, 0x00, 0x00, 0x00, 0x00, 0x00, 0x00, 0x00, 0x00, 0x00, 0x00, 0x00,
    0x00, 0x00, 0x00, 0x00, 0x00, 0x00, 0x00, 0x00, 0x00, 0x00, 0x00, 0x00,
    0x00, 0x00, 0x00, 0x00, 0x00, 0x00, 0x00, 0x00, 0x00, 0x00, 0x00, 0x00,
    0x00, 0x00, 0x00, 0x00, 0x00, 0x00, 0x00, 0x00, 0x00, 0x00, 0x00, 0x00,
    0x00, 0x00, 0x00, 0x00, 0x00, 0x00, 0x00, 0x00, 0x00, 0x00, 0x00, 0x00,
    0x00, 0x00, 0x00, 0x00, 0x00, 0x00, 0x00, 0x00, 0x00, 0x00, 0x00, 0x00,
    0x00, 0x00, 0x00, 0x00, 0x00, 0x00, 0x00, 0x00, 0x00, 0x00, 0x00, 0x00,
    0x00, 0x00, 0x00, 0x00, 0x00, 0x00, 0x00, 0x00, 0x00, 0x00, 0x00, 0x00,
    0x00, 0x00, 0x00, 0x00, 0x00, 0x00, 0x00, 0x00, 0x00, 0x00, 0x00, 0x00,
    0x00, 0x00, 0x00, 0x00, 0x00, 0x00, 0x00, 0x00, 0x00, 0x00, 0x00, 0x00,
    0x00, 0x00, 0x00, 0x00, 0x00, 0x00, 0x00, 0x00, 0x00, 0x00, 0x00, 0x00,
    0x00, 0x00, 0x00, 0x00, 0x00, 0x00, 0x00, 0x00, 0x00, 0x00, 0x00, 0x00,
    0x00, 0x00, 0x00, 0x00, 0x00, 0x00, 0x00, 0x00, 0x00, 0x00, 0x00, 0x00,
    0x00, 0x00, 0x00, 0x00, 0x00, 0x00, 0x00, 0x00, 0x00, 0x00, 0x00, 0x00,
    0x00, 0x00, 0x00, 0x00, 0x00, 0x00, 0x00, 0x00, 0x00, 0x00, 0x00, 0x00,
    0x00, 0x00, 0x00, 0x00, 0x00, 0x00, 0x00, 0x00, 0x00, 0x00, 0x00, 0x00,
    0x91, 0x07, 0x20, 0xe2, 0x00, 0xc4, 0x1c, 0x00, 0x5d, 0x2a, 0xf7, 0x05,
    0x00, 0x00, 0xb8, 0x4c, 0x91, 0x00, 0x17, 0x02, 0x00, 0x00, 0xc8, 0xf0,
    0x48, 0x00, 0x57, 0x02, 0x00, 0x00, 0xc8, 0xf0, 0x51, 0x07, 0x20, 0xee,
    0x00, 0x44, 0x1e, 0x02, 0x94, 0x00, 0x77, 0x02, 0x00, 0x00, 0xc8, 0xf0,
    0x98, 0x00, 0x67, 0x02, 0x00, 0x00, 0xc8, 0xf0, 0x5d, 0x5d, 0x47, 0x00,
    0x00, 0x00, 0x80, 0x50, 0xf0, 0x0f, 0x22, 0xe6, 0x02, 0xc0, 0x1f, 0x00,
    0x69, 0x91, 0x77, 0x00, 0x00, 0x00, 0x47, 0x38, 0x4c, 0x2a, 0x87, 0x04,
    0x00, 0x00, 0xb8, 0x5c, 0x42, 0xff, 0xf7, 0x05, 0x00, 0x00, 0x11, 0x4c,
    0xf1, 0x07, 0x00, 0xfe, 0x41, 0xc4, 0x1f, 0x00, 0xff, 0xff, 0x07, 0x20,
    0x04, 0x00, 0x5e, 0xef, 0x55, 0x91, 0x37, 0x00, 0x00, 0x00, 0x28, 0x38,
    0x00, 0xff, 0x07, 0x20, 0x04, 0x10, 0x4e, 0xef, 0xf0, 0x0f, 0x22, 0xfe,
    0x00, 0xc0, 0x1f, 0x00, 0x84, 0x91, 0x77, 0x00, 0x00, 0x00, 0x47, 0x38,
    0x04, 0xff, 0x07, 0x20, 0x04, 0x10, 0x4e, 0xef, 0x40, 0x00, 0x97, 0x05,
    0x80, 0x07, 0x98, 0x4c, 0xf1, 0x07, 0x00, 0xfe, 0x41, 0xc4, 0x1f, 0x00,
    0x08, 0xff, 0x07, 0x20, 0x04, 0x10, 0x4e, 0xef, 0x8d, 0x91, 0x37, 0x00,
    0x00, 0x00, 0x28, 0x38, 0x0c, 0xff, 0x07, 0x20, 0x04, 0x10, 0x4e, 0xef,
    0xf0, 0x07, 0x20, 0xfe, 0x00, 0xc0, 0x3f, 0x08, 0x69, 0x69, 0x27, 0x00,
    0x00, 0x00, 0x48, 0x38, 0x10, 0xff, 0x07, 0x20, 0x04, 0x10, 0x4e, 0xef,
    0x49, 0x91, 0x07, 0xff, 0x7f, 0x00, 0x47, 0x39, 0xf1, 0x07, 0x00, 0xfe,
    0x12, 0xc4, 0x1f, 0x00, 0x14, 0xff, 0x07, 0x20, 0x04, 0x10, 0x4e, 0xef,
    0x41, 0x4c, 0xd7, 0x05, 0x00, 0x00, 0x68, 0x5c, 0x18, 0xff, 0x07, 0x20,
    0x04, 0x10, 0x4e, 0xef, 0xf0, 0x07, 0x20, 0xfe, 0x00, 0xc0, 0x1f, 0x00,
    0x84, 0x84, 0x27, 0x00, 0x00, 0x00, 0x48, 0x38, 0x1c, 0xff, 0x07, 0x20,
    0x04, 0x10, 0x4e, 0xef, 0x44, 0x00, 0x87, 0x05, 0x80, 0x07, 0x98, 0x4c,
    0xf1, 0x07, 0x00, 0xfe, 0x41, 0xc4, 0x1f, 0x00, 0x20, 0xff, 0x07, 0x20,
    0x04, 0x10, 0x4e, 0xef, 0x78, 0x91, 0x87, 0x00, 0x00, 0x00, 0x47, 0x38,
    0x24, 0xff, 0x07, 0x20, 0x04, 0x10, 0x4e, 0xef, 0xf0, 0x0f, 0x22, 0xfe,
    0x00, 0xc0, 0x1f, 0x00, 0x61, 0x91, 0x17, 0x00, 0x00, 0x00, 0x47, 0x38,
    0x28, 0xff, 0x07, 0x20, 0x04, 0x10, 0x4e, 0xef, 0x7c, 0x91, 0x17, 0x20,
    0x00, 0x00, 0x00, 0x38, 0xf1, 0x07, 0x00, 0xfe, 0x00, 0xc4, 0x1f, 0x00,
    0x2c, 0xff, 0x07, 0x20, 0x04, 0x10, 0x4e, 0xef, 0x41, 0x41, 0x07, 0x80,
    0xb3, 0x20, 0x80, 0x32, 0x30, 0xff, 0x07, 0x20, 0x04, 0x10, 0x4e, 0xef,
    0xf0, 0x07, 0x20, 0xfe, 0x00, 0xc4, 0x1c, 0x00, 0x7b, 0x00, 0xd7, 0x05,
    0x80, 0x07, 0x98, 0x4c, 0x34, 0xff, 0x07, 0x20, 0x04, 0x10, 0x4e, 0xef,
    0x41, 0x1a, 0x17, 0x04, 0x80, 0x01, 0xb0, 0x5c, 0xf0, 0x07, 0x20, 0xfe,
    0x00, 0xc0, 0x1f, 0x00, 0x78, 0x78, 0x27, 0x00, 0x00, 0x00, 0x28, 0x38,
    0x38, 0xff, 0x07, 0x20, 0x04, 0x10, 0x4e, 0xef, 0x65, 0x49, 0x17, 0x00,
    0x00, 0x00, 0x28, 0x38, 0xf1, 0x07, 0x20, 0xfe, 0x00, 0xc4, 0x1f, 0x08,
    0x3c, 0xff, 0x07, 0x20, 0x04, 0x10, 0x4e, 0xef, 0x81, 0x84, 0x57, 0x05,
    0x80, 0x02, 0x18, 0x5c, 0x8b, 0x8d, 0x07, 0x01, 0x00, 0x00, 0x10, 0x38,
    0xf1, 0x07, 0x20, 0xfe, 0x00, 0xc4, 0x1f, 0x00, 0x80, 0x8d, 0x97, 0x06,
    0x80, 0x02, 0x18, 0x5c, 0x89, 0x7b, 0xf7, 0x01, 0x00, 0x20, 0x40, 0x38,
    0x79, 0x40, 0x77, 0x00, 0x00, 0x00, 0x48, 0x38, 0xf1, 0x17, 0x20, 0xfe,
    0x06, 0xc4, 0x1f, 0x00, 0x59, 0x42, 0x17, 0x04, 0x00, 0x24, 0x01, 0x5b,
    0x94, 0x94, 0xe7, 0x05, 0x80, 0x20, 0x00, 0x4e, 0x78, 0x78, 0x17, 0x06,
    0x00, 0x02, 0x47, 0x5c, 0xf1, 0x07, 0x20, 0xfe, 0x00, 0xc4, 0x1f, 0x00,
    0x80, 0x80, 0x07, 0x08, 0x01, 0x01, 0x18, 0x38, 0x4d, 0x65, 0xc7, 0x07,
    0x00, 0x00, 0x10, 0x5c, 0x7c, 0x7c, 0x47, 0x00, 0x00, 0x00, 0x48, 0x38,
    0xf1, 0x47, 0x20, 0xfe, 0x00, 0xc4, 0x1f, 0x00, 0x98, 0x98, 0xf7, 0x05,
    0x80, 0x2c, 0x00, 0x4e, 0x6d, 0x94, 0x57, 0x05, 0x80, 0x02, 0x18, 0x5c,
    0x81, 0x81, 0x47, 0x08, 0x00, 0x00, 0x10, 0x5c, 0xf1, 0x07, 0x20, 0xfe,
    0x00, 0xc4, 0x1f, 0x00, 0x7d, 0xf0, 0x07, 0x10, 0x02, 0x00, 0x00, 0x01,
    0x4d, 0x78, 0xd7, 0x04, 0x00, 0x01, 0x18, 0x5c, 0x89, 0x00, 0x00, 0x02,
    0x80, 0x07, 0x98, 0x38, 0xf1, 0x07, 0x20, 0xfe, 0xc0, 0xc4, 0x1f, 0x00,
    0x46, 0x98, 0x97, 0x06, 0x80, 0x02, 0x18, 0x5c, 0x4a, 0x44, 0xd7, 0x06,
    0xa8, 0x7f, 0x00, 0x5b, 0x78, 0x78, 0x47, 0x00, 0x00, 0x00, 0x48, 0x38,
    0xf1, 0x07, 0x20, 0xfe, 0x40, 0xc4, 0x1f, 0x00, 0x45, 0x44, 0xd7, 0x06,
    0x00, 0x42, 0x00, 0x5b, 0x2f, 0x6d, 0xb7, 0x05, 0x80, 0x03, 0x63, 0x4b,
    0x4b, 0x6d, 0x07, 0x01, 0x00, 0x00, 0x10, 0x38, 0xf1, 0x07, 0x20, 0xfe,
    0x80, 0xc4, 0x1f, 0x00, 0x1f, 0x46, 0xc7, 0x05, 0x80, 0x03, 0x63, 0x4b,
    0x51, 0x40, 0xd7, 0x08, 0x00, 0x23, 0x00, 0x5b, 0x4d, 0x4d, 0x47, 0x00,
    0x00, 0x00, 0x48, 0x38, 0xf1, 0x07, 0x20, 0xfe, 0x00, 0xc4, 0x1f, 0x08,
    0x45, 0x44, 0xa7, 0x04, 0x98, 0x22, 0x30, 0x5b, 0x7c, 0x49, 0xc7, 0x07,
    0x80, 0x02, 0x18, 0x5c, 0x50, 0x46, 0x17, 0x00, 0x00, 0x00, 0x10, 0x38,
    0xf1, 0x07, 0x20, 0xfe, 0x00, 0xc4, 0x1f, 0x00, 0x37, 0x4b, 0xb7, 0x05,
    0x80, 0x03, 0x63, 0x4b, 0x51, 0x40, 0xd7, 0x08, 0x90, 0x28, 0x20, 0x5b,
    0x81, 0x81, 0x27, 0x00, 0x00, 0x00, 0x48, 0x38, 0xf1, 0x07, 0x22, 0xfe,
    0x00, 0xc4, 0x1f, 0x00, 0x52, 0x46, 0x27, 0x00, 0x00, 0x00, 0x10, 0x38,
    0x43, 0x44, 0x57, 0x04, 0x00, 0x02, 0x18, 0x5c, 0x53, 0x46, 0x37, 0x00,
    0x00, 0x00, 0x10, 0x38, 0xf1, 0x07, 0x20, 0xfe, 0x00, 0xc4, 0x1f, 0x08,
    0x70, 0x45, 0x27, 0x05, 0x00, 0x81, 0xd7, 0x4b, 0x27, 0x50, 0xc7, 0x05,
    0x80, 0x03, 0x63, 0x4b, 0x47, 0x40, 0x17, 0x05, 0x00, 0x02, 0x18, 0x5c,
    0xf1, 0x07, 0x24, 0xfe, 0x00, 0xc4, 0x1f, 0x10, 0x85, 0x40, 0x97, 0x08,
    0x80, 0x7f, 0x00, 0x5b, 0x92, 0x78, 0xd7, 0x04, 0x00, 0x04, 0x18, 0x5c,
    0x7b, 0x7b, 0x97, 0x08, 0x00, 0x00, 0x11, 0x5c, 0xf1, 0x07, 0x20, 0xfe,
    0x00, 0xc4, 0x1f, 0x00, 0x78, 0x49, 0x87, 0x07, 0x80, 0x02, 0x18, 0x5c,
    0x7e, 0xff, 0x07, 0x06, 0x00, 0x00, 0xe8, 0x38, 0x2f, 0x52, 0xc7, 0x05,
    0x80, 0x03, 0x63, 0x4b, 0xf1, 0x07, 0x20, 0xfe, 0x00, 0xc4, 0x1f, 0x08,
    0x71, 0x45, 0x37, 0x05, 0x80, 0x7f, 0x17, 0x1a, 0x37, 0x53, 0xc7, 0x05,
    0x80, 0x03, 0x63, 0x4b, 0x72, 0x43, 0x27, 0x05, 0x00, 0x81, 0xd7, 0x4b,
    0xf1, 0x07, 0x24, 0xfe, 0x00, 0xcc, 0x1f, 0x00, 0x85, 0x40, 0x97, 0x08,
    0x90, 0x42, 0x20, 0x5b, 0x78, 0x49, 0x87, 0x07, 0x00, 0x00, 0x10, 0x5c,
    0x7c, 0x7c, 0x07, 0x08, 0x01, 0x00, 0x10, 0x38, 0xf2, 0x07, 0x80, 0xfe,
    0x40, 0xc8, 0x1f, 0x00, 0x73, 0x43, 0x37, 0x05, 0x80, 0x7f, 0x17, 0x1a,
    0x74, 0x51, 0x47, 0x05, 0x00, 0x81, 0xd7, 0x4b, 0x7f, 0xff, 0x87, 0x07,
    0x00, 0x00, 0xe8, 0x38, 0xf2, 0x07, 0xc0, 0xfc, 0x40, 0xc4, 0x1f, 0x00,
    0x75, 0x51, 0x57, 0x05, 0x80, 0x7f, 0x17, 0x1a, 0x76, 0x47, 0x47, 0x05,
    0x00, 0x81, 0xd7, 0x4b, 0x77, 0x47, 0x57, 0x05, 0x80, 0x7f, 0x17, 0x1a,
    0xf1, 0x07, 0x20, 0xfe, 0x40, 0xc4, 0x1f, 0x08, 0x00, 0x7e, 0x07, 0x06,
    0x00, 0x00, 0xf0, 0x38, 0x87, 0x84, 0x27, 0x00, 0x00, 0x00, 0x10, 0x38,
    0x88, 0x84, 0x37, 0x00, 0x00, 0x00, 0x10, 0x38, 0xea, 0x07, 0x42, 0xfe,
    0x80, 0xc8, 0x1f, 0x10, 0x83, 0x84, 0x17, 0x00, 0x00, 0x00, 0x10, 0x38,
    0x07, 0x84, 0x97, 0x08, 0x80, 0x02, 0x63, 0x5b, 0x0f, 0x83, 0x97, 0x08,
    0x80, 0x02, 0x63, 0x5b, 0xf2, 0x07, 0xe4, 0xfc, 0x80, 0xc0, 0x1f, 0x00,
    0x17, 0x87, 0x97, 0x08, 0x80, 0x02, 0x63, 0x5b, 0x1f, 0x88, 0x97, 0x08,
    0x80, 0x02, 0x63, 0x5b, 0x60, 0x00, 0xf8, 0x0f, 0x80, 0x07, 0x98, 0x5c,
    0xf1, 0x07, 0x20, 0xfe, 0x80, 0xc0, 0x1f, 0x00, 0x60, 0x70, 0x00, 0x00,
    0x00, 0xa0, 0xd4, 0xee, 0x07, 0x84, 0x97, 0x08, 0x00, 0x03, 0x63, 0x5b,
    0x61, 0x00, 0xf9, 0x0f, 0x80, 0x07, 0x98, 0x5c, 0xf1, 0x07, 0x20, 0xfe,
    0x80, 0xc0, 0x1f, 0x00, 0x61, 0x70, 0x41, 0x00, 0x00, 0xa0, 0xd4, 0xee,
    0x0f, 0x83, 0x97, 0x08, 0x00, 0x03, 0x63, 0x5b, 0x62, 0x00, 0xfa, 0x0f,
    0x80, 0x07, 0x98, 0x5c, 0xf1, 0x07, 0x20, 0xfe, 0x80, 0xc0, 0x1f, 0x00,
    0x62, 0x70, 0x82, 0x00, 0x00, 0xa0, 0xd4, 0xee, 0x17, 0x87, 0x97, 0x08,
    0x00, 0x03, 0x63, 0x5b, 0x63, 0x00, 0xfb, 0x0f, 0x80, 0x07, 0x98, 0x5c,
    0x31, 0x07, 0xe0, 0xfc, 0x80, 0xc0, 0x1f, 0x00, 0x63, 0x70, 0xc3, 0x00,
    0x00, 0xa0, 0xd4, 0xee, 0x1f, 0x88, 0x97, 0x08, 0x00, 0x03, 0x63, 0x5b,
    0x64, 0x00, 0xf8, 0x0f, 0x80, 0x07, 0x98, 0x5c, 0xf1, 0x07, 0x20, 0xfe,
    0x80, 0xc0, 0x1f, 0x00, 0x64, 0x72, 0x00, 0x00, 0x00, 0xa0, 0xd4, 0xee,
    0x07, 0x8d, 0x97, 0x08, 0x80, 0x03, 0x63, 0x5b, 0x65, 0x00, 0xf9, 0x0f,
    0x80, 0x07, 0x98, 0x5c, 0xf1, 0x07, 0x20, 0xfe, 0x00, 0xc0, 0x1f, 0x00,
    0x65, 0x72, 0x41, 0x00, 0x00, 0xa0, 0xd4, 0xee, 0x0f, 0x8b, 0x97, 0x08,
    0x80, 0x03, 0x63, 0x5b, 0x66, 0x00, 0xfa, 0x0f, 0x80, 0x07, 0x98, 0x5c,
    0xf2, 0x07, 0x00, 0xfe, 0x00, 0x28, 0x1d, 0x00, 0x66, 0x72, 0x82, 0x00,
    0x00, 0xa0, 0xd4, 0xee, 0x67, 0x00, 0xfb, 0x0f, 0x80, 0x07, 0x98, 0x5c,
    0x67, 0x72, 0xc3, 0x00, 0x00, 0xa0, 0xd4, 0xee, 0xf2, 0x07, 0xa2, 0xfd,
    0x00, 0xc0, 0x1f, 0x00, 0x00, 0x7f, 0x80, 0x07, 0x00, 0x00, 0xf0, 0x38,
    0x00, 0xff, 0x88, 0x07, 0x00, 0x00, 0xf0, 0x38, 0x68, 0x00, 0xfb, 0x0f,
    0x80, 0x07, 0x98, 0x5c, 0xf1, 0x07, 0x00, 0xfe, 0x00, 0xc4, 0x1f, 0x00,
    0x68, 0x74, 0x03, 0x00, 0x00, 0xa0, 0xd4, 0xee, 0x69, 0x00, 0xfc, 0x0f,
    0x80, 0x07, 0x98, 0x5c, 0x69, 0x74, 0x44, 0x00, 0x00, 0xa0, 0xd4, 0xee,
    0xf0, 0x07, 0x20, 0xfe, 0x00, 0xc0, 0x1f, 0x00, 0x6a, 0x00, 0xfd, 0x0f,
    0x80, 0x07, 0x98, 0x5c, 0x6a, 0x74, 0x85, 0x00, 0x00, 0xa0, 0xd4, 0xee,
    0x6b, 0x00, 0xfe, 0x0f, 0x80, 0x07, 0x98, 0x5c, 0x91, 0x07, 0x40, 0xfe,
    0x00, 0xb4, 0x1f, 0x00, 0x6b, 0x74, 0xc6, 0x00, 0x00, 0xa0, 0xd4, 0xee,
    0x00, 0x7f, 0x81, 0x07, 0x00, 0x00, 0xf0, 0x38, 0x00, 0xff, 0x89, 0x07,
    0x00, 0x00, 0xf0, 0x38, 0xf0, 0x07, 0x20, 0xfe, 0x00, 0xc0, 0x1f, 0x00,
    0x6c, 0x00, 0xfb, 0x0f, 0x80, 0x07, 0x98, 0x5c, 0x6c, 0x76, 0x03, 0x00,
    0x00, 0xa0, 0xd4, 0xee, 0x6d, 0x00, 0xfc, 0x0f, 0x80, 0x07, 0x98, 0x5c,
    0xf1, 0x07, 0x00, 0xfe, 0x00, 0xc4, 0x1f, 0x00, 0x6d, 0x76, 0x44, 0x00,
    0x00, 0xa0, 0xd4, 0xee, 0x6e, 0x00, 0xfd, 0x0f, 0x80, 0x07, 0x98, 0x5c,
    0x6e, 0x76, 0x85, 0x00, 0x00, 0xa0, 0xd4, 0xee, 0xf0, 0x07, 0x20, 0xf6,
    0x00, 0xc4, 0x1f, 0x00, 0x6f, 0x00, 0xfe, 0x0f, 0x80, 0x07, 0x98, 0x5c,
    0x6f, 0x76, 0xc6, 0x00, 0x00, 0xa0, 0xd4, 0xee, 0x0f, 0x7b, 0x07, 0x02,
    0x80, 0x03, 0x6d, 0x36, 0xf0, 0x07, 0x20, 0xfe, 0x02, 0xc4, 0x1f, 0x00,
    0x7b, 0x7b, 0x07, 0xfe, 0x7f, 0x00, 0x10, 0x39, 0x63, 0x81, 0x07, 0x18,
    0x00, 0x00, 0x5c, 0xef, 0x62, 0x81, 0x07, 0x10, 0x00, 0x00, 0x5c, 0xef,
    0xf1, 0x07, 0x20, 0xfe, 0x00, 0xd8, 0x1f, 0x08, 0x61, 0x81, 0x07, 0x08,
    0x00, 0x00, 0x5c, 0xef, 0x60, 0x81, 0x07, 0x00, 0x00, 0x00, 0x5c, 0xef,
    0x70, 0x89, 0x07, 0x07, 0x00, 0x81, 0xd7, 0x5b, 0xf0, 0x07, 0x20, 0xfe,
    0x04, 0xc4, 0x1f, 0x00, 0x71, 0x71, 0xf7, 0x0f, 0x00, 0x08, 0x10, 0x5c,
    0x67, 0x81, 0x07, 0x1c, 0x00, 0x00, 0x5c, 0xef, 0x66, 0x81, 0x07, 0x14,
    0x00, 0x00, 0x5c, 0xef, 0xf1, 0x07, 0x20, 0xfe, 0x00, 0xd8, 0x1f, 0x00,
    0x65, 0x81, 0x07, 0x0c, 0x00, 0x00, 0x5c, 0xef, 0x64, 0x81, 0x07, 0x04,
    0x00, 0x00, 0x5c, 0xef, 0x72, 0x89, 0x27, 0x07, 0x00, 0x81, 0xd7, 0x5b,
    0xf0, 0x07, 0x20, 0xfe, 0x10, 0xd8, 0x1f, 0x08, 0x73, 0x73, 0xf7, 0x0f,
    0x00, 0x08, 0x10, 0x5c, 0x68, 0x80, 0x07, 0x00, 0x00, 0x00, 0x5e, 0xef,
    0x74, 0x85, 0x47, 0x07, 0x00, 0x81, 0xd7, 0x5b, 0xf0, 0x07, 0x20, 0xfe,
    0x20, 0xd8, 0x1f, 0x00, 0x75, 0x75, 0xf7, 0x0f, 0x00, 0x08, 0x10, 0x5c,
    0x6c, 0x80, 0x07, 0x80, 0x00, 0x00, 0x5e, 0xef, 0x76, 0x85, 0x67, 0x07,
    0x00, 0x81, 0xd7, 0x5b, 0xf0, 0x07, 0xa0, 0xfe, 0x00, 0xc4, 0x1f, 0x10,
    0x77, 0x77, 0xf7, 0x0f, 0x00, 0x08, 0x10, 0x5c, 0x00, 0x00, 0x07, 0x00,
    0x80, 0x1b, 0xa8, 0xf0, 0x80, 0x80, 0xd7, 0x07, 0x00, 0x00, 0x10, 0x5c,
    0xf1, 0x07, 0x00, 0xfe, 0x00, 0xc4, 0x1f, 0x00, 0x81, 0x81, 0xd7, 0x07,
    0x00, 0x00, 0x10, 0x5c, 0x7d, 0xff, 0xd7, 0x07, 0x00, 0x00, 0x11, 0x5c,
    0x40, 0x78, 0x07, 0x00, 0x00, 0x10, 0x4e, 0xef, 0xf1, 0x07, 0x20, 0xfe,
    0x00, 0x44, 0x1c, 0x00, 0x48, 0x7c, 0x07, 0x00, 0x00, 0x10, 0x4e, 0xef,
    0x44, 0x78, 0x07, 0x04, 0x00, 0x10, 0x4e, 0xef, 0x4c, 0x7c, 0x07, 0x04,
    0x00, 0x10, 0x4e, 0xef, 0xf1, 0x07, 0xa0, 0xfd, 0x00, 0xc4, 0x1f, 0x00,
    0x00, 0x7e, 0x01, 0x06, 0x00, 0x00, 0xf0, 0x38, 0x00, 0xff, 0x09, 0x06,
    0x00, 0x00, 0xf0, 0x38, 0x60, 0x70, 0x05, 0x00, 0x00, 0xa0, 0xd4, 0xee,
    0xf1, 0x07, 0x20, 0xfe, 0x00, 0xc4, 0x1c, 0x00, 0x61, 0x70, 0x45, 0x00,
    0x00, 0xa0, 0xd4, 0xee, 0x62, 0x70, 0x85, 0x00, 0x00, 0xa0, 0xd4, 0xee,
    0x63, 0x70, 0xc5, 0x00, 0x00, 0xa0, 0xd4, 0xee, 0xf1, 0x07, 0x20, 0xfe,
    0x00, 0xc4, 0x1f, 0x00, 0x64, 0x72, 0x06, 0x00, 0x00, 0xa0, 0xd4, 0xee,
    0x65, 0x72, 0x46, 0x00, 0x00, 0xa0, 0xd4, 0xee, 0x66, 0x72, 0x86, 0x00,
    0x00, 0xa0, 0xd4, 0xee, 0x51, 0x07, 0x40, 0xfe, 0x00, 0xb4, 0x1f, 0x00,
    0x67, 0x72, 0xc6, 0x00, 0x00, 0xa0, 0xd4, 0xee, 0x00, 0x7f, 0x81, 0x07,
    0x00, 0x00, 0xf0, 0x38, 0x00, 0xff, 0x89, 0x07, 0x00, 0x00, 0xf0, 0x38,
    0xf1, 0x07, 0x20, 0xfe, 0x00, 0xc4, 0x1f, 0x00, 0x68, 0x74, 0x03, 0x00,
    0x00, 0xa0, 0xd4, 0xee, 0x69, 0x74, 0x44, 0x00, 0x00, 0xa0, 0xd4, 0xee,
    0x6a, 0x74, 0x85, 0x00, 0x00, 0xa0, 0xd4, 0xee, 0x91, 0x07, 0x20, 0xfe,
    0x00, 0xc4, 0x1f, 0x00, 0x6b, 0x74, 0xc6, 0x00, 0x00, 0xa0, 0xd4, 0xee,
    0x6c, 0x76, 0x03, 0x00, 0x00, 0xa0, 0xd4, 0xee, 0x6d, 0x76, 0x44, 0x00,
    0x00, 0xa0, 0xd4, 0xee, 0xf1, 0x07, 0x20, 0xf6, 0x00, 0xc4, 0x1f, 0x08,
    0x6e, 0x76, 0x85, 0x00, 0x00, 0xa0, 0xd4, 0xee, 0x6f, 0x76, 0xc6, 0x00,
    0x00, 0xa0, 0xd4, 0xee, 0x07, 0x7b, 0xf7, 0x0f, 0x80, 0x03, 0x6d, 0x5b,
    0xf0, 0x0f, 0x26, 0xfe, 0x00, 0xc4, 0x1f, 0x08, 0x01, 0x48, 0x27, 0x04,
    0x80, 0x00, 0x80, 0x59, 0x50, 0x78, 0x07, 0x08, 0x00, 0x10, 0x4e, 0xef,
    0x00, 0x49, 0x27, 0x04, 0x00, 0x00, 0x80, 0x59, 0xf1, 0x07, 0x20, 0xfe,
    0x00, 0xc0, 0x1f, 0x18, 0x0f, 0x7b, 0x07, 0x02, 0x80, 0x03, 0x6d, 0x36,
    0x7b, 0x7b, 0x07, 0xfe, 0x7f, 0x00, 0x10, 0x39, 0x02, 0x49, 0x07, 0x04,
    0x00, 0x01, 0x80, 0x59, 0xf1, 0x07, 0x20, 0xfe, 0x40, 0xc0, 0x1f, 0x18,
    0x58, 0x7c, 0x07, 0x08, 0x00, 0x10, 0x4e, 0xef, 0x03, 0x48, 0x07, 0x04,
    0x80, 0x01, 0x80, 0x59, 0x05, 0x48, 0x37, 0x04, 0x80, 0x02, 0x80, 0x59,
    0xf1, 0x07, 0x20, 0xfe, 0x40, 0xc0, 0x1f, 0x18, 0x54, 0x78, 0x07, 0x0c,
    0x00, 0x10, 0x4e, 0xef, 0x04, 0x49, 0x37, 0x04, 0x00, 0x02, 0x80, 0x59,
    0x06, 0x49, 0x17, 0x04, 0x00, 0x03, 0x80, 0x59, 0x11, 0x07, 0x20, 0xfe,
    0x40, 0xc4, 0x1f, 0x18, 0x5c, 0x7c, 0x07, 0x0c, 0x00, 0x10, 0x4e, 0xef,
    0x07, 0x48, 0x17, 0x04, 0x80, 0x03, 0x80, 0x59, 0x21, 0x48, 0x67, 0x04,
    0x80, 0x10, 0x80, 0x59, 0xf1, 0x07, 0x22, 0xfe, 0xc0, 0xc4, 0x1f, 0x08,
    0x20, 0x49, 0x67, 0x04, 0x00, 0x10, 0x80, 0x59, 0x22, 0x49, 0x47, 0x04,
    0x00, 0x11, 0x80, 0x59, 0x23, 0x48, 0x47, 0x04, 0x80, 0x11, 0x80, 0x59,
    0xf1, 0x07, 0x26, 0xfe, 0xc0, 0xc4, 0x1f, 0x10, 0x25, 0x48, 0x77, 0x04,
    0x80, 0x12, 0x80, 0x59, 0x24, 0x49, 0x77, 0x04, 0x00, 0x12, 0x80, 0x59,
    0x26, 0x49, 0x57, 0x04, 0x00, 0x13, 0x80, 0x59, 0xf1, 0x07, 0x24, 0xfe,
    0xc0, 0xc4, 0x1f, 0x08, 0x27, 0x48, 0x57, 0x04, 0x80, 0x13, 0x80, 0x59,
    0x2d, 0x4a, 0x77, 0x04, 0x80, 0x16, 0x80, 0x59, 0x2c, 0x4b, 0x77, 0x04,
    0x00, 0x16, 0x80, 0x59, 0xf1, 0x07, 0x26, 0xfe, 0x40, 0xc4, 0x1f, 0x18,
    0x2e, 0x4b, 0x57, 0x04, 0x00, 0x17, 0x80, 0x59, 0x2f, 0x4a, 0x57, 0x04,
    0x80, 0x17, 0x80, 0x59, 0x29, 0x4a, 0x67, 0x04, 0x80, 0x14, 0x80, 0x59,
    0xf1, 0x07, 0x22, 0xfe, 0xc0, 0xc4, 0x1f, 0x08, 0x28, 0x4b, 0x67, 0x04,
    0x00, 0x14, 0x80, 0x59, 0x2a, 0x4b, 0x47, 0x04, 0x00, 0x15, 0x80, 0x59,
    0x2b, 0x4a, 0x47, 0x04, 0x80, 0x15, 0x80, 0x59, 0xf1, 0x07, 0x26, 0xfe,
    0x40, 0xc4, 0x1f, 0x18, 0x0d, 0x4a, 0x37, 0x04, 0x80, 0x06, 0x80, 0x59,
    0x0c, 0x4b, 0x37, 0x04, 0x00, 0x06, 0x80, 0x59, 0x0e, 0x4b, 0x17, 0x04,
    0x00, 0x07, 0x80, 0x59, 0xf1, 0x07, 0x22, 0xfe, 0xc0, 0xc4, 0x1f, 0x18,
    0x0f, 0x4a, 0x17, 0x04, 0x80, 0x07, 0x80, 0x59, 0x09, 0x4a, 0x27, 0x04,
    0x80, 0x04, 0x80, 0x59, 0x08, 0x4b, 0x27, 0x04, 0x00, 0x04, 0x80, 0x59,
    0xf0, 0x07, 0x24, 0xfe, 0x02, 0xc4, 0x1f, 0x10, 0x0a, 0x4b, 0x07, 0x04,
    0x00, 0x05, 0x80, 0x59, 0x63, 0x81, 0x00, 0x18, 0x00, 0x00, 0x5c, 0xef,
    0x0b, 0x4a, 0x07, 0x04, 0x80, 0x05, 0x80, 0x59, 0xf1, 0x07, 0x00, 0xfe,
    0xc0, 0xc4, 0x1f, 0x00, 0x00, 0x7e, 0x01, 0x06, 0x00, 0x00, 0xf0, 0x38,
    0x11, 0x4c, 0x27, 0x04, 0x80, 0x08, 0x80, 0x59, 0x62, 0x81, 0x00, 0x10,
    0x00, 0x00, 0x5c, 0xef, 0xf1, 0x07, 0x22, 0xfe, 0x00, 0xc0, 0x1f, 0x18,
    0x10, 0x4d, 0x27, 0x04, 0x00, 0x08, 0x80, 0x59, 0x00, 0xff, 0x09, 0x06,
    0x00, 0x00, 0xf0, 0x38, 0x12, 0x4d, 0x07, 0x04, 0x00, 0x09, 0x80, 0x59,
    0xf1, 0x07, 0x20, 0xfe, 0x40, 0xc0, 0x1f, 0x18, 0x61, 0x81, 0x00, 0x08,
    0x00, 0x00, 0x5c, 0xef, 0x13, 0x4c, 0x07, 0x04, 0x80, 0x09, 0x80, 0x59,
    0x15, 0x4c, 0x37, 0x04, 0x80, 0x0a, 0x80, 0x59, 0xf1, 0x01, 0x20, 0xfe,
    0x40, 0xc4, 0x1f, 0x00, 0x60, 0x81, 0x00, 0x00, 0x00, 0x00, 0x5c, 0xef,
    0x14, 0x4d, 0x37, 0x04, 0x00, 0x0a, 0x80, 0x59, 0x70, 0x70, 0x01, 0x08,
    0x00, 0x80, 0x10, 0x38, 0xf1, 0x07, 0x26, 0xfe, 0x40, 0xc4, 0x1f, 0x18,
    0x16, 0x4d, 0x17, 0x04, 0x00, 0x0b, 0x80, 0x59, 0x17, 0x4c, 0x17, 0x04,
    0x80, 0x0b, 0x80, 0x59, 0x31, 0x4c, 0x67, 0x04, 0x80, 0x18, 0x80, 0x59,
    0xf1, 0x07, 0x22, 0xfe, 0xc0, 0xc4, 0x1f, 0x00, 0x30, 0x4d, 0x67, 0x04,
    0x00, 0x18, 0x80, 0x59, 0x32, 0x4d, 0x47, 0x04, 0x00, 0x19, 0x80, 0x59,
    0x71, 0x71, 0xf1, 0x0f, 0x00, 0x08, 0x10, 0x5c, 0xf1, 0x07, 0x22, 0xfe,
    0xc0, 0xc4, 0x1f, 0x18, 0x33, 0x4c, 0x47, 0x04, 0x80, 0x19, 0x80, 0x59,
    0x35, 0x4c, 0x77, 0x04, 0x80, 0x1a, 0x80, 0x59, 0x34, 0x4d, 0x77, 0x04,
    0x00, 0x1a, 0x80, 0x59, 0xf0, 0x07, 0x24, 0xfe, 0x02, 0xc4, 0x1f, 0x10,
    0x36, 0x4d, 0x57, 0x04, 0x00, 0x1b, 0x80, 0x59, 0x60, 0x70, 0x05, 0x00,
    0x00, 0xa0, 0xd4, 0xee, 0x37, 0x4c, 0x57, 0x04, 0x80, 0x1b, 0x80, 0x59,
    0xf0, 0x07, 0x26, 0xfe, 0x00, 0xc4, 0x1f, 0x08, 0x3d, 0x4e, 0x77, 0x04,
    0x80, 0x1e, 0x80, 0x59, 0x61, 0x70, 0x45, 0x00, 0x00, 0xa0, 0xd4, 0xee,
    0x3c, 0x4f, 0x77, 0x04, 0x00, 0x1e, 0x80, 0x59, 0xf0, 0x07, 0x26, 0xfe,
    0x00, 0xc4, 0x1f, 0x08, 0x3e, 0x4f, 0x57, 0x04, 0x00, 0x1f, 0x80, 0x59,
    0x62, 0x70, 0x85, 0x00, 0x00, 0xa0, 0xd4, 0xee, 0x3f, 0x4e, 0x57, 0x04,
    0x80, 0x1f, 0x80, 0x59, 0xf0, 0x07, 0x26, 0xe6, 0x00, 0xc4, 0x1f, 0x08,
    0x39, 0x4e, 0x67, 0x04, 0x80, 0x1c, 0x80, 0x59, 0x63, 0x70, 0xc5, 0x00,
    0x00, 0xa0, 0xd4, 0xee, 0x38, 0x4f, 0x67, 0x04, 0x00, 0x1c, 0x80, 0x59,
    0xf1, 0x07, 0x26, 0xfe, 0x40, 0xc4, 0x1f, 0x18, 0x3a, 0x4f, 0x47, 0x04,
    0x00, 0x1d, 0x80, 0x59, 0x3b, 0x4e, 0x47, 0x04, 0x80, 0x1d, 0x80, 0x59,
    0x1d, 0x4e, 0x37, 0x04, 0x80, 0x0e, 0x80, 0x59, 0xf1, 0x07, 0x22, 0xfe,
    0xc0, 0xc4, 0x1f, 0x08, 0x1c, 0x4f, 0x37, 0x04, 0x00, 0x0e, 0x80, 0x59,
    0x1e, 0x4f, 0x17, 0x04, 0x00, 0x0f, 0x80, 0x59, 0x1f, 0x4e, 0x17, 0x04,
    0x80, 0x0f, 0x80, 0x59, 0xf1, 0x07, 0x26, 0xfe, 0x40, 0xc4, 0x1f, 0x10,
    0x19, 0x4e, 0x27, 0x04, 0x80, 0x0c, 0x80, 0x59, 0x18, 0x4f, 0x27, 0x04,
    0x00, 0x0c, 0x80, 0x59, 0x1a, 0x4f, 0x07, 0x04, 0x00, 0x0d, 0x80, 0x59,
    0xf1, 0x07, 0x00, 0xfe, 0xc1, 0xc4, 0x1f, 0x00, 0x1b, 0x4e, 0x07, 0x04,
    0x80, 0x0d, 0x80, 0x59, 0x01, 0x58, 0x27, 0x05, 0x80, 0x00, 0x80, 0x59,
    0x40, 0x78, 0x07, 0x10, 0x00, 0x10, 0x4e, 0xef, 0xf1, 0x07, 0x02, 0xfe,
    0xc0, 0xc4, 0x1f, 0x00, 0x00, 0x59, 0x27, 0x05, 0x00, 0x00, 0x80, 0x59,
    0x02, 0x59, 0x07, 0x05, 0x00, 0x01, 0x80, 0x59, 0x48, 0x7c, 0x07, 0x10,
    0x00, 0x10, 0x4e, 0xef, 0xf1, 0x07, 0x02, 0xfe, 0xc0, 0xc4, 0x1f, 0x00,
    0x03, 0x58, 0x07, 0x05, 0x80, 0x01, 0x80, 0x59, 0x05, 0x58, 0x37, 0x05,
    0x80, 0x02, 0x80, 0x59, 0x44, 0x78, 0x07, 0x14, 0x00, 0x10, 0x4e, 0xef,
    0xf1, 0x07, 0x02, 0xfe, 0xc0, 0x44, 0x1c, 0x00, 0x04, 0x59, 0x37, 0x05,
    0x00, 0x02, 0x80, 0x59, 0x06, 0x59, 0x17, 0x05, 0x00, 0x03, 0x80, 0x59,
    0x4c, 0x7c, 0x07, 0x14, 0x00, 0x10, 0x4e, 0xef, 0xf1, 0x07, 0x02, 0xfe,
    0xc0, 0xc4, 0x9f, 0x00, 0x07, 0x58, 0x17, 0x05, 0x80, 0x03, 0x80, 0x59,
    0x21, 0x58, 0x67, 0x05, 0x80, 0x10, 0x80, 0x59, 0x67, 0x81, 0x00, 0x1c,
    0x00, 0x00, 0x5c, 0xef, 0xf1, 0x07, 0x02, 0xfe, 0xc0, 0xc4, 0x1f, 0x00,
    0x20, 0x59, 0x67, 0x05, 0x00, 0x10, 0x80, 0x59, 0x22, 0x59, 0x47, 0x05,
    0x00, 0x11, 0x80, 0x59, 0x66, 0x81, 0x00, 0x14, 0x00, 0x00, 0x5c, 0xef,
    0xf1, 0x07, 0x02, 0xfe, 0xc0, 0xc4, 0x1f, 0x00, 0x23, 0x58, 0x47, 0x05,
    0x80, 0x11, 0x80, 0x59, 0x25, 0x58, 0x77, 0x05, 0x80, 0x12, 0x80, 0x59,
    0x65, 0x81, 0x00, 0x0c, 0x00, 0x00, 0x5c, 0xef, 0xf1, 0x07, 0x06, 0xfe,
    0x80, 0xc4, 0x0b, 0x00, 0x24, 0x59, 0x77, 0x05, 0x00, 0x12, 0x80, 0x59,
    0x26, 0x59, 0x57, 0x05, 0x00, 0x13, 0x80, 0x59, 0x64, 0x81, 0x00, 0x04,
    0x00, 0x00, 0x5c, 0xef, 0xf1, 0x07, 0x24, 0xfe, 0x00, 0xc4, 0x1f, 0x18,
    0x27, 0x58, 0x57, 0x05, 0x80, 0x13, 0x80, 0x59, 0x72, 0x72, 0x01, 0x08,
    0x00, 0x80, 0x10, 0x38, 0x2d, 0x5a, 0x77, 0x05, 0x80, 0x16, 0x80, 0x59,
    0xf1, 0x07, 0x22, 0xfe, 0xc0, 0xc4, 0x1f, 0x08, 0x2c, 0x5b, 0x77, 0x05,
    0x00, 0x16, 0x80, 0x59, 0x2e, 0x5b, 0x57, 0x05, 0x00, 0x17, 0x80, 0x59,
    0x2f, 0x5a, 0x57, 0x05, 0x80, 0x17, 0x80, 0x59, 0xf1, 0x07, 0x26, 0xfe,
    0x00, 0xc4, 0x1f, 0x08, 0x29, 0x5a, 0x67, 0x05, 0x80, 0x14, 0x80, 0x59,
    0x73, 0x73, 0xf1, 0x0f, 0x00, 0x08, 0x10, 0x5c, 0x28, 0x5b, 0x67, 0x05,
    0x00, 0x14, 0x80, 0x59, 0xf0, 0x07, 0x26, 0xfe, 0x04, 0xc4, 0x1f, 0x08,
    0x2a, 0x5b, 0x47, 0x05, 0x00, 0x15, 0x80, 0x59, 0x64, 0x72, 0x06, 0x00,
    0x00, 0xa0, 0xd4, 0xee, 0x2b, 0x5a, 0x47, 0x05, 0x80, 0x15, 0x80, 0x59,
    0xf0, 0x07, 0x26, 0xfe, 0x00, 0xc4, 0x1f, 0x08, 0x0d, 0x5a, 0x37, 0x05,
    0x80, 0x06, 0x80, 0x59, 0x65, 0x72, 0x46, 0x00, 0x00, 0xa0, 0xd4, 0xee,
    0x0c, 0x5b, 0x37, 0x05, 0x00, 0x06, 0x80, 0x59, 0xf0, 0x07, 0x26, 0xfe,
    0x00, 0xc4, 0x1f, 0x08, 0x0e, 0x5b, 0x17, 0x05, 0x00, 0x07, 0x80, 0x59,
    0x66, 0x72, 0x86, 0x00, 0x00, 0xa0, 0xd4, 0xee, 0x0f, 0x5a, 0x17, 0x05,
    0x80, 0x07, 0x80, 0x59, 0xf0, 0x07, 0x26, 0xea, 0x00, 0xc4, 0x1f, 0x18,
    0x09, 0x5a, 0x27, 0x05, 0x80, 0x04, 0x80, 0x59, 0x67, 0x72, 0xc6, 0x00,
    0x00, 0xa0, 0xd4, 0xee, 0x08, 0x5b, 0x27, 0x05, 0x00, 0x04, 0x80, 0x59,
    0xf1, 0x07, 0x24, 0xfe, 0x80, 0x84, 0x1f, 0x18, 0x0a, 0x5b, 0x07, 0x05,
    0x00, 0x05, 0x80, 0x59, 0x0b, 0x5a, 0x07, 0x05, 0x80, 0x05, 0x80, 0x59,
    0x11, 0x5c, 0x27, 0x05, 0x80, 0x08, 0x80, 0x59, 0xf1, 0x07, 0x22, 0xfe,
    0xc0, 0xc4, 0x1f, 0x08, 0x10, 0x5d, 0x27, 0x05, 0x00, 0x08, 0x80, 0x59,
    0x12, 0x5d, 0x07, 0x05, 0x00, 0x09, 0x80, 0x59, 0x13, 0x5c, 0x07, 0x05,
    0x80, 0x09, 0x80, 0x59, 0xf1, 0x07, 0x26, 0xfe, 0x40, 0xc4, 0x1f, 0x18,
    0x15, 0x5c, 0x37, 0x05, 0x80, 0x0a, 0x80, 0x59, 0x14, 0x5d, 0x37, 0x05,
    0x00, 0x0a, 0x80, 0x59, 0x16, 0x5d, 0x17, 0x05, 0x00, 0x0b, 0x80, 0x59,
    0xf1, 0x07, 0x22, 0xfe, 0xc0, 0xc4, 0x1f, 0x08, 0x17, 0x5c, 0x17, 0x05,
    0x80, 0x0b, 0x80, 0x59, 0x31, 0x5c, 0x67, 0x05, 0x80, 0x18, 0x80, 0x59,
    0x30, 0x5d, 0x67, 0x05, 0x00, 0x18, 0x80, 0x59, 0xf1, 0x07, 0x26, 0xfe,
    0x40, 0xc4, 0x1f, 0x18, 0x32, 0x5d, 0x47, 0x05, 0x00, 0x19, 0x80, 0x59,
    0x33, 0x5c, 0x47, 0x05, 0x80, 0x19, 0x80, 0x59, 0x35, 0x5c, 0x77, 0x05,
    0x80, 0x1a, 0x80, 0x59, 0xf1, 0x07, 0x26, 0xfe, 0x80, 0xc4, 0x1f, 0x10,
    0x34, 0x5d, 0x77, 0x05, 0x00, 0x1a, 0x80, 0x59, 0x36, 0x5d, 0x57, 0x05,
    0x00, 0x1b, 0x80, 0x59, 0x37, 0x5c, 0x57, 0x05, 0x80, 0x1b, 0x80, 0x59,
    0xf1, 0x07, 0x26, 0xfe, 0x40, 0xc4, 0x1f, 0x18, 0x3d, 0x5e, 0x77, 0x05,
    0x80, 0x1e, 0x80, 0x59, 0x3c, 0x5f, 0x77, 0x05, 0x00, 0x1e, 0x80, 0x59,
    0x3e, 0x5f, 0x57, 0x05, 0x00, 0x1f, 0x80, 0x59, 0xf1, 0x07, 0x02, 0xfe,
    0xc0, 0xc4, 0x13, 0x02, 0x3f, 0x5e, 0x57, 0x05, 0x80, 0x1f, 0x80, 0x59,
    0x39, 0x5e, 0x67, 0x05, 0x80, 0x1c, 0x80, 0x59, 0x68, 0x80, 0x00, 0x00,
    0x00, 0x00, 0x5e, 0xef, 0xf1, 0x07, 0x22, 0xfe, 0x00, 0xc4, 0x1f, 0x18,
    0x38, 0x5f, 0x67, 0x05, 0x00, 0x1c, 0x80, 0x59, 0x00, 0x7f, 0x81, 0x07,
    0x00, 0x00, 0xf0, 0x38, 0x3a, 0x5f, 0x47, 0x05, 0x00, 0x1d, 0x80, 0x59,
    0xf1, 0x07, 0x22, 0xfe, 0x00, 0xc4, 0x1f, 0x18, 0x3b, 0x5e, 0x47, 0x05,
    0x80, 0x1d, 0x80, 0x59, 0x00, 0xff, 0x89, 0x07, 0x00, 0x00, 0xf0, 0x38,
    0x1d, 0x5e, 0x37, 0x05, 0x80, 0x0e, 0x80, 0x59, 0xf1, 0x07, 0x22, 0xfe,
    0x00, 0xc4, 0x1f, 0x18, 0x1c, 0x5f, 0x37, 0x05, 0x00, 0x0e, 0x80, 0x59,
    0x74, 0x74, 0x91, 0x07, 0x00, 0x80, 0x10, 0x5c, 0x1e, 0x5f, 0x17, 0x05,
    0x00, 0x0f, 0x80, 0x59, 0xf1, 0x07, 0x22, 0xfe, 0xc0, 0xc4, 0x1f, 0x08,
    0x1f, 0x5e, 0x17, 0x05, 0x80, 0x0f, 0x80, 0x59, 0x19, 0x5e, 0x27, 0x05,
    0x80, 0x0c, 0x80, 0x59, 0x18, 0x5f, 0x27, 0x05, 0x00, 0x0c, 0x80, 0x59,
    0xf1, 0x07, 0x24, 0xfe, 0x00, 0xc4, 0x1f, 0x00, 0x1a, 0x5f, 0x07, 0x05,
    0x00, 0x0d, 0x80, 0x59, 0x75, 0x75, 0xf1, 0x0f, 0x00, 0x08, 0x10, 0x5c,
    0x1b, 0x5e, 0x07, 0x05, 0x80, 0x0d, 0x80, 0x59, 0xf0, 0x0f, 0x26, 0xfe,
    0x00, 0xc4, 0x1f, 0x08, 0x01, 0x48, 0x27, 0x04, 0x80, 0x00, 0x80, 0x59,
    0x50, 0x78, 0x07, 0x18, 0x00, 0x10, 0x4e, 0xef, 0x00, 0x49, 0x27, 0x04,
    0x00, 0x00, 0x80, 0x59, 0xf0, 0x07, 0x26, 0xfe, 0x00, 0xc4, 0x1f, 0x08,
    0x02, 0x49, 0x07, 0x04, 0x00, 0x01, 0x80, 0x59, 0x58, 0x7c, 0x07, 0x18,
    0x00, 0x10, 0x4e, 0xef, 0x03, 0x48, 0x07, 0x04, 0x80, 0x01, 0x80, 0x59,
    0xf0, 0x07, 0x26, 0xfe, 0x00, 0xc4, 0x1f, 0x08, 0x05, 0x48, 0x37, 0x04,
    0x80, 0x02, 0x80, 0x59, 0x54, 0x78, 0x07, 0x1c, 0x00, 0x10, 0x4e, 0xef,
    0x04, 0x49, 0x37, 0x04, 0x00, 0x02, 0x80, 0x59, 0xf0, 0x07, 0x26, 0xe2,
    0x00, 0xc4, 0x1f, 0x08, 0x06, 0x49, 0x17, 0x04, 0x00, 0x03, 0x80, 0x59,
    0x5c, 0x7c, 0x07, 0x1c, 0x00, 0x10, 0x4e, 0xef, 0x07, 0x48, 0x17, 0x04,
    0x80, 0x03, 0x80, 0x59, 0xf0, 0x07, 0x26, 0xfe, 0x10, 0xc4, 0x1f, 0x08,
    0x21, 0x48, 0x67, 0x04, 0x80, 0x10, 0x80, 0x59, 0x68, 0x74, 0x03, 0x00,
    0x00, 0xa0, 0xd4, 0xee, 0x20, 0x49, 0x67, 0x04, 0x00, 0x10, 0x80, 0x59,
    0xf0, 0x07, 0x26, 0xfe, 0x00, 0xc4, 0x1f, 0x08, 0x22, 0x49, 0x47, 0x04,
    0x00, 0x11, 0x80, 0x59, 0x69, 0x74, 0x44, 0x00, 0x00, 0xa0, 0xd4, 0xee,
    0x23, 0x48, 0x47, 0x04, 0x80, 0x11, 0x80, 0x59, 0xf0, 0x07, 0x26, 0xfe,
    0x00, 0xc4, 0x1f, 0x18, 0x25, 0x48, 0x77, 0x04, 0x80, 0x12, 0x80, 0x59,
    0x6a, 0x74, 0x85, 0x00, 0x00, 0xa0, 0xd4, 0xee, 0x24, 0x49, 0x77, 0x04,
    0x00, 0x12, 0x80, 0x59, 0xf0, 0x07, 0x24, 0xf2, 0x00, 0xc4, 0x1f, 0x10,
    0x26, 0x49, 0x57, 0x04, 0x00, 0x13, 0x80, 0x59, 0x6b, 0x74, 0xc6, 0x00,
    0x00, 0xa0, 0xd4, 0xee, 0x27, 0x48, 0x57, 0x04, 0x80, 0x13, 0x80, 0x59,
    0xf1, 0x07, 0x26, 0xfe, 0x40, 0xc4, 0x1f, 0x18, 0x2d, 0x4a, 0x77, 0x04,
    0x80, 0x16, 0x80, 0x59, 0x2c, 0x4b, 0x77, 0x04, 0x00, 0x16, 0x80, 0x59,
    0x2e, 0x4b, 0x57, 0x04, 0x00, 0x17, 0x80, 0x59, 0xf1, 0x07, 0x22, 0xfe,
    0xc0, 0xc4, 0x1f, 0x08, 0x2f, 0x4a, 0x57, 0x04, 0x80, 0x17, 0x80, 0x59,
    0x29, 0x4a, 0x67, 0x04, 0x80, 0x14, 0x80, 0x59, 0x28, 0x4b, 0x67, 0x04,
    0x00, 0x14, 0x80, 0x59, 0xf1, 0x07, 0x26, 0xfe, 0x40, 0xc4, 0x1f, 0x18,
    0x2a, 0x4b, 0x47, 0x04, 0x00, 0x15, 0x80, 0x59, 0x2b, 0x4a, 0x47, 0x04,
    0x80, 0x15, 0x80, 0x59, 0x0d, 0x4a, 0x37, 0x04, 0x80, 0x06, 0x80, 0x59,
    0xf1, 0x07, 0x22, 0xfe, 0xc0, 0xc4, 0x1f, 0x08, 0x0c, 0x4b, 0x37, 0x04,
    0x00, 0x06, 0x80, 0x59, 0x0e, 0x4b, 0x17, 0x04, 0x00, 0x07, 0x80, 0x59,
    0x0f, 0x4a, 0x17, 0x04, 0x80, 0x07, 0x80, 0x59, 0xf1, 0x07, 0x26, 0xfe,
    0xc0, 0xc4, 0x1f, 0x10, 0x09, 0x4a, 0x27, 0x04, 0x80, 0x04, 0x80, 0x59,
    0x08, 0x4b, 0x27, 0x04, 0x00, 0x04, 0x80, 0x59, 0x0a, 0x4b, 0x07, 0x04,
    0x00, 0x05, 0x80, 0x59, 0xf1, 0x07, 0x24, 0xfc, 0xc0, 0xc4, 0x1f, 0x08,
    0x0b, 0x4a, 0x07, 0x04, 0x80, 0x05, 0x80, 0x59, 0x11, 0x4c, 0x27, 0x04,
    0x80, 0x08, 0x80, 0x59, 0x10, 0x4d, 0x27, 0x04, 0x00, 0x08, 0x80, 0x59,
    0xf1, 0x07, 0x26, 0xfe, 0x40, 0xc4, 0x1f, 0x18, 0x12, 0x4d, 0x07, 0x04,
    0x00, 0x09, 0x80, 0x59, 0x13, 0x4c, 0x07, 0x04, 0x80, 0x09, 0x80, 0x59,
    0x15, 0x4c, 0x37, 0x04, 0x80, 0x0a, 0x80, 0x59, 0xf1, 0x07, 0x02, 0xfe,
    0xc0, 0xc4, 0x17, 0x04, 0x14, 0x4d, 0x37, 0x04, 0x00, 0x0a, 0x80, 0x59,
    0x16, 0x4d, 0x17, 0x04, 0x00, 0x0b, 0x80, 0x59, 0x6c, 0x80, 0x00, 0x80,
    0x00, 0x00, 0x5e, 0xef, 0xf1, 0x07, 0x22, 0xfe, 0xc0, 0xc4, 0x1f, 0x08,
    0x17, 0x4c, 0x17, 0x04, 0x80, 0x0b, 0x80, 0x59, 0x31, 0x4c, 0x67, 0x04,
    0x80, 0x18, 0x80, 0x59, 0x30, 0x4d, 0x67, 0x04, 0x00, 0x18, 0x80, 0x59,
    0xf1, 0x07, 0x26, 0xfe, 0x40, 0xc4, 0x1f, 0x18, 0x32, 0x4d, 0x47, 0x04,
    0x00, 0x19, 0x80, 0x59, 0x33, 0x4c, 0x47, 0x04, 0x80, 0x19, 0x80, 0x59,
    0x35, 0x4c, 0x77, 0x04, 0x80, 0x1a, 0x80, 0x59, 0xf1, 0x07, 0x26, 0xfe,
    0x00, 0xc4, 0x1f, 0x10, 0x34, 0x4d, 0x77, 0x04, 0x00, 0x1a, 0x80, 0x59,
    0x76, 0x76, 0x91, 0x07, 0x00, 0x80, 0x10, 0x5c, 0x36, 0x4d, 0x57, 0x04,
    0x00, 0x1b, 0x80, 0x59, 0xf1, 0x07, 0x24, 0xfe, 0xc0, 0xc4, 0x1f, 0x08,
    0x37, 0x4c, 0x57, 0x04, 0x80, 0x1b, 0x80, 0x59, 0x3d, 0x4e, 0x77, 0x04,
    0x80, 0x1e, 0x80, 0x59, 0x3c, 0x4f, 0x77, 0x04, 0x00, 0x1e, 0x80, 0x59,
    0xf1, 0x07, 0x26, 0xfe, 0x00, 0xc4, 0x1f, 0x08, 0x3e, 0x4f, 0x57, 0x04,
    0x00, 0x1f, 0x80, 0x59, 0x77, 0x77, 0xf1, 0x0f, 0x00, 0x08, 0x10, 0x5c,
    0x3f, 0x4e, 0x57, 0x04, 0x80, 0x1f, 0x80, 0x59, 0xf1, 0x07, 0x26, 0xfe,
    0x40, 0xc4, 0x1f, 0x18, 0x39, 0x4e, 0x67, 0x04, 0x80, 0x1c, 0x80, 0x59,
    0x38, 0x4f, 0x67, 0x04, 0x00, 0x1c, 0x80, 0x59, 0x3a, 0x4f, 0x47, 0x04,
    0x00, 0x1d, 0x80, 0x59, 0xf1, 0x07, 0x02, 0xfe, 0xc0, 0xc4, 0x1f, 0x04,
    0x3b, 0x4e, 0x47, 0x04, 0x80, 0x1d, 0x80, 0x59, 0x1d, 0x4e, 0x37, 0x04,
    0x80, 0x0e, 0x80, 0x59, 0x6c, 0x76, 0x03, 0x00, 0x00, 0xa0, 0xd4, 0xee,
    0xf1, 0x07, 0x02, 0xfe, 0xc0, 0xc4, 0x1f, 0x00, 0x1c, 0x4f, 0x37, 0x04,
    0x00, 0x0e, 0x80, 0x59, 0x1e, 0x4f, 0x17, 0x04, 0x00, 0x0f, 0x80, 0x59,
    0x6d, 0x76, 0x44, 0x00, 0x00, 0xa0, 0xd4, 0xee, 0xf1, 0x07, 0x02, 0xfe,
    0xc0, 0xc4, 0x1f, 0x00, 0x1f, 0x4e, 0x17, 0x04, 0x80, 0x0f, 0x80, 0x59,
    0x19, 0x4e, 0x27, 0x04, 0x80, 0x0c, 0x80, 0x59, 0x6e, 0x76, 0x85, 0x00,
    0x00, 0xa0, 0xd4, 0xee, 0xf1, 0x07, 0x02, 0xfe, 0x80, 0xc4, 0x1e, 0x00,
    0x18, 0x4f, 0x27, 0x04, 0x00, 0x0c, 0x80, 0x59, 0x1a, 0x4f, 0x07, 0x04,
    0x00, 0x0d, 0x80, 0x59, 0x6f, 0x76, 0xc6, 0x00, 0x00, 0xa0, 0xd4, 0xee,
    0xf0, 0x07, 0xa0, 0xfe, 0x00, 0xc4, 0x1f, 0x10, 0x1b, 0x4e, 0x07, 0x04,
    0x80, 0x0d, 0x80, 0x59, 0x00, 0x00, 0x07, 0x00, 0x80, 0x1b, 0xa8, 0xf0,
    0x78, 0x78, 0xd0, 0x07, 0x00, 0x00, 0x11, 0x5c, 0xf1, 0x07, 0x24, 0xfe,
    0x80, 0xc4, 0x1f, 0x00, 0x7c, 0x7c, 0xd0, 0x07, 0x00, 0x00, 0x11, 0x5c,
    0x81, 0x81, 0xd0, 0x07, 0x00, 0x00, 0x10, 0x5c, 0x80, 0x80, 0xd0, 0x07,
    0x00, 0x00, 0x10, 0x5c, 0xf1, 0x07, 0x00, 0xfe, 0xc1, 0xc4, 0x1f, 0x00,
    0x7d, 0xff, 0xd0, 0x07, 0x00, 0x00, 0x11, 0x5c, 0x01, 0x58, 0x27, 0x05,
    0x80, 0x00, 0x80, 0x59, 0x40, 0x78, 0x00, 0x00, 0x00, 0x10, 0x4e, 0xef,
    0xf1, 0x07, 0x02, 0xfe, 0xc0, 0xc4, 0x1f, 0x00, 0x00, 0x59, 0x27, 0x05,
    0x00, 0x00, 0x80, 0x59, 0x02, 0x59, 0x07, 0x05, 0x00, 0x01, 0x80, 0x59,
    0x48, 0x7c, 0x00, 0x00, 0x00, 0x10, 0x4e, 0xef, 0xf1, 0x07, 0x02, 0xfe,
    0xc0, 0xc4, 0x1f, 0x00, 0x03, 0x58, 0x07, 0x05, 0x80, 0x01, 0x80, 0x59,
    0x05, 0x58, 0x37, 0x05, 0x80, 0x02, 0x80, 0x59, 0x44, 0x78, 0x00, 0x04,
    0x00, 0x10, 0x4e, 0xef, 0xf1, 0x07, 0x02, 0xfe, 0xc0, 0x44, 0x1c, 0x00,
    0x04, 0x59, 0x37, 0x05, 0x00, 0x02, 0x80, 0x59, 0x06, 0x59, 0x17, 0x05,
    0x00, 0x03, 0x80, 0x59, 0x4c, 0x7c, 0x00, 0x04, 0x00, 0x10, 0x4e, 0xef,
    0xf1, 0x07, 0x22, 0xfe, 0xc0, 0xc4, 0x1f, 0x08, 0x07, 0x58, 0x17, 0x05,
    0x80, 0x03, 0x80, 0x59, 0x21, 0x58, 0x67, 0x05, 0x80, 0x10, 0x80, 0x59,
    0x20, 0x59, 0x67, 0x05, 0x00, 0x10, 0x80, 0x59, 0xf1, 0x07, 0x26, 0xfe,
    0x40, 0xc4, 0x1f, 0x18, 0x22, 0x59, 0x47, 0x05, 0x00, 0x11, 0x80, 0x59,
    0x23, 0x58, 0x47, 0x05, 0x80, 0x11, 0x80, 0x59, 0x25, 0x58, 0x77, 0x05,
    0x80, 0x12, 0x80, 0x59, 0xf1, 0x07, 0x26, 0xfe, 0x80, 0xc4, 0x1f, 0x10,
    0x24, 0x59, 0x77, 0x05, 0x00, 0x12, 0x80, 0x59, 0x26, 0x59, 0x57, 0x05,
    0x00, 0x13, 0x80, 0x59, 0x27, 0x58, 0x57, 0x05, 0x80, 0x13, 0x80, 0x59,
    0xf1, 0x07, 0x26, 0xfe, 0x40, 0xc4, 0x1f, 0x18, 0x2d, 0x5a, 0x77, 0x05,
    0x80, 0x16, 0x80, 0x59, 0x2c, 0x5b, 0x77, 0x05, 0x00, 0x16, 0x80, 0x59,
    0x2e, 0x5b, 0x57, 0x05, 0x00, 0x17, 0x80, 0x59, 0xf1, 0x07, 0x22, 0xfe,
    0xc0, 0xc4, 0x1f, 0x08, 0x2f, 0x5a, 0x57, 0x05, 0x80, 0x17, 0x80, 0x59,
    0x29, 0x5a, 0x67, 0x05, 0x80, 0x14, 0x80, 0x59, 0x28, 0x5b, 0x67, 0x05,
    0x00, 0x14, 0x80, 0x59, 0xf1, 0x07, 0x26, 0xfe, 0x40, 0xc4, 0x1f, 0x18,
    0x2a, 0x5b, 0x47, 0x05, 0x00, 0x15, 0x80, 0x59, 0x2b, 0x5a, 0x47, 0x05,
    0x80, 0x15, 0x80, 0x59, 0x0d, 0x5a, 0x37, 0x05, 0x80, 0x06, 0x80, 0x59,
    0xf1, 0x07, 0x22, 0xfe, 0xc0, 0xc4, 0x1f, 0x08, 0x0c, 0x5b, 0x37, 0x05,
    0x00, 0x06, 0x80, 0x59, 0x0e, 0x5b, 0x17, 0x05, 0x00, 0x07, 0x80, 0x59,
    0x0f, 0x5a, 0x17, 0x05, 0x80, 0x07, 0x80, 0x59, 0xf1, 0x07, 0x26, 0xfe,
    0xc0, 0xc4, 0x1f, 0x10, 0x09, 0x5a, 0x27, 0x05, 0x80, 0x04, 0x80, 0x59,
    0x08, 0x5b, 0x27, 0x05, 0x00, 0x04, 0x80, 0x59, 0x0a, 0x5b, 0x07, 0x05,
    0x00, 0x05, 0x80, 0x59, 0xf1, 0x07, 0x24, 0xfc, 0xc0, 0xc4, 0x1f, 0x08,
    0x0b, 0x5a, 0x07, 0x05, 0x80, 0x05, 0x80, 0x59, 0x11, 0x5c, 0x27, 0x05,
    0x80, 0x08, 0x80, 0x59, 0x10, 0x5d, 0x27, 0x05, 0x00, 0x08, 0x80, 0x59,
    0xf1, 0x07, 0x26, 0xfe, 0x40, 0xc4, 0x1f, 0x18, 0x12, 0x5d, 0x07, 0x05,
    0x00, 0x09, 0x80, 0x59, 0x13, 0x5c, 0x07, 0x05, 0x80, 0x09, 0x80, 0x59,
    0x15, 0x5c, 0x37, 0x05, 0x80, 0x0a, 0x80, 0x59, 0xf1, 0x07, 0x22, 0xfe,
    0xc0, 0xc4, 0x1f, 0x08, 0x14, 0x5d, 0x37, 0x05, 0x00, 0x0a, 0x80, 0x59,
    0x16, 0x5d, 0x17, 0x05, 0x00, 0x0b, 0x80, 0x59, 0x17, 0x5c, 0x17, 0x05,
    0x80, 0x0b, 0x80, 0x59, 0xf1, 0x07, 0x26, 0xfe, 0x40, 0xc4, 0x1f, 0x18,
    0x31, 0x5c, 0x67, 0x05, 0x80, 0x18, 0x80, 0x59, 0x30, 0x5d, 0x67, 0x05,
    0x00, 0x18, 0x80, 0x59, 0x32, 0x5d, 0x47, 0x05, 0x00, 0x19, 0x80, 0x59,
    0xf1, 0x07, 0x22, 0xfe, 0xc0, 0xc4, 0x1f, 0x18, 0x33, 0x5c, 0x47, 0x05,
    0x80, 0x19, 0x80, 0x59, 0x35, 0x5c, 0x77, 0x05, 0x80, 0x1a, 0x80, 0x59,
    0x34, 0x5d, 0x77, 0x05, 0x00, 0x1a, 0x80, 0x59, 0xf1, 0x07, 0x24, 0xfe,
    0x80, 0xc4, 0x1f, 0x18, 0x36, 0x5d, 0x57, 0x05, 0x00, 0x1b, 0x80, 0x59,
    0x37, 0x5c, 0x57, 0x05, 0x80, 0x1b, 0x80, 0x59, 0x3d, 0x5e, 0x77, 0x05,
    0x80, 0x1e, 0x80, 0x59, 0xf1, 0x07, 0x22, 0xfe, 0xc0, 0xc4, 0x1f, 0x08,
    0x3c, 0x5f, 0x77, 0x05, 0x00, 0x1e, 0x80, 0x59, 0x3e, 0x5f, 0x57, 0x05,
    0x00, 0x1f, 0x80, 0x59, 0x3f, 0x5e, 0x57, 0x05, 0x80, 0x1f, 0x80, 0x59,
    0xf1, 0x07, 0x26, 0xfe, 0x40, 0xc4, 0x1f, 0x18, 0x39, 0x5e, 0x67, 0x05,
    0x80, 0x1c, 0x80, 0x59, 0x38, 0x5f, 0x67, 0x05, 0x00, 0x1c, 0x80, 0x59,
    0x3a, 0x5f, 0x47, 0x05, 0x00, 0x1d, 0x80, 0x59, 0xf1, 0x07, 0x22, 0xfe,
    0xc0, 0xc4, 0x1f, 0x08, 0x3b, 0x5e, 0x47, 0x05, 0x80, 0x1d, 0x80, 0x59,
    0x1d, 0x5e, 0x37, 0x05, 0x80, 0x0e, 0x80, 0x59, 0x1c, 0x5f, 0x37, 0x05,
    0x00, 0x0e, 0x80, 0x59, 0xf1, 0x07, 0x26, 0xfe, 0x40, 0xc4, 0x1f, 0x18,
    0x1e, 0x5f, 0x17, 0x05, 0x00, 0x0f, 0x80, 0x59, 0x1f, 0x5e, 0x17, 0x05,
    0x80, 0x0f, 0x80, 0x59, 0x19, 0x5e, 0x27, 0x05, 0x80, 0x0c, 0x80, 0x59,
    0xf1, 0x07, 0x22, 0xfe, 0x80, 0xc0, 0x1f, 0x00, 0x18, 0x5f, 0x27, 0x05,
    0x00, 0x0c, 0x80, 0x59, 0x1a, 0x5f, 0x07, 0x05, 0x00, 0x0d, 0x80, 0x59,
    0x1b, 0x5e, 0x07, 0x05, 0x80, 0x0d, 0x80, 0x59, 0xe5, 0x07, 0x20, 0xfe,
    0x00, 0xc4, 0x1f, 0x08, 0x8f, 0x00, 0x80, 0x2a, 0xff, 0x0f, 0x40, 0xe2,
    0x68, 0x00, 0x67, 0x05, 0x80, 0x07, 0x98, 0x4c, 0x7d, 0x91, 0x57, 0x00,
    0x00, 0x00, 0x28, 0x38, 0xf1, 0x07, 0x20, 0xfe, 0x00, 0xc8, 0x1f, 0x00,
    0x79, 0x91, 0xf7, 0x01, 0x00, 0x00, 0x47, 0x38, 0x6c, 0x00, 0xa7, 0x05,
    0x80, 0x07, 0x98, 0x4c, 0x69, 0x00, 0x77, 0x05, 0x80, 0x07, 0x98, 0x4c,
    0xf1, 0x07, 0x24, 0xfe, 0x00, 0xc4, 0x1f, 0x10, 0x40, 0x03, 0x87, 0x06,
    0x00, 0x00, 0x68, 0x5c, 0x75, 0x94, 0xd7, 0x07, 0x80, 0x02, 0x18, 0x5c,
    0x41, 0x02, 0x87, 0x06, 0x00, 0x00, 0x68, 0x5c, 0xf1, 0x07, 0x24, 0xfe,
    0x80, 0xc4, 0x1f, 0x00, 0x6a, 0x98, 0x97, 0x07, 0x80, 0x02, 0x18, 0x5c,
    0x42, 0x0b, 0x87, 0x06, 0x00, 0x00, 0x68, 0x5c, 0x71, 0x6c, 0x47, 0x00,
    0x00, 0x00, 0x48, 0x38, 0xf1, 0x07, 0x20, 0xfe, 0x00, 0xc4, 0x1f, 0x18,
    0x43, 0x0a, 0x87, 0x06, 0x00, 0x00, 0x68, 0x5c, 0x72, 0x7d, 0x97, 0x07,
    0x00, 0x04, 0x18, 0x5c, 0x81, 0x75, 0xc7, 0x06, 0xa8, 0x7f, 0x00, 0x5b,
    0xf1, 0x07, 0x00, 0xfe, 0x40, 0xc4, 0x1f, 0x00, 0x27, 0x6a, 0xc7, 0x05,
    0x80, 0x03, 0x63, 0x4b, 0x70, 0x75, 0xc7, 0x06, 0x00, 0x35, 0x00, 0x5b,
    0x40, 0x92, 0x07, 0x00, 0x00, 0x00, 0x5e, 0xef, 0xf1, 0x07, 0x22, 0xfe,
    0x00, 0xc4, 0x1f, 0x08, 0x6b, 0x75, 0x47, 0x00, 0x00, 0x00, 0x10, 0x38,
    0x6d, 0x6c, 0x67, 0x00, 0x00, 0x00, 0x48, 0x38, 0x6e, 0x75, 0x87, 0x00,
    0x00, 0x00, 0x10, 0x38, 0xf1, 0x07, 0x20, 0xfe, 0x40, 0xc4, 0x1f, 0x00,
    0x72, 0x72, 0x27, 0x00, 0x00, 0x00, 0x48, 0x38, 0x6f, 0x75, 0xc7, 0x00,
    0x00, 0x00, 0x10, 0x38, 0x70, 0x75, 0x17, 0x08, 0x18, 0x38, 0x30, 0x5b,
    0xf1, 0x07, 0x24, 0xfe, 0x80, 0xc4, 0x1f, 0x10, 0x44, 0x13, 0x87, 0x06,
    0x00, 0x00, 0x68, 0x5c, 0x45, 0x12, 0x87, 0x06, 0x00, 0x00, 0x68, 0x5c,
    0x46, 0x1b, 0x87, 0x06, 0x00, 0x00, 0x68, 0x5c, 0xf1, 0x07, 0x24, 0xfe,
    0x80, 0xc4, 0x1f, 0x00, 0x47, 0x1a, 0x87, 0x06, 0x00, 0x00, 0x68, 0x5c,
    0x48, 0x07, 0x87, 0x06, 0x00, 0x00, 0x68, 0x5c, 0x60, 0x70, 0x07, 0x05,
    0x00, 0x81, 0xd7, 0x4b, 0xf1, 0x07, 0x00, 0xfe, 0x80, 0xc4, 0x1f, 0x00,
    0x2f, 0x69, 0xf7, 0x0f, 0x00, 0x02, 0x6b, 0x5b, 0x49, 0x06, 0x87, 0x06,
    0x00, 0x00, 0x68, 0x5c, 0x44, 0x92, 0x07, 0x04, 0x00, 0x00, 0x5e, 0xef,
    0xf1, 0x07, 0x24, 0xfe, 0x80, 0xc4, 0x1f, 0x10, 0x4a, 0x0f, 0x87, 0x06,
    0x00, 0x00, 0x68, 0x5c, 0x4b, 0x0e, 0x87, 0x06, 0x00, 0x00, 0x68, 0x5c,
    0x4c, 0x17, 0x87, 0x06, 0x00, 0x00, 0x68, 0x5c, 0xf1, 0x07, 0x20, 0xfe,
    0x80, 0xc0, 0x1f, 0x10, 0x61, 0x70, 0x17, 0x05, 0x80, 0x7f, 0x17, 0x1a,
    0x62, 0x60, 0x17, 0x07, 0x00, 0x80, 0x10, 0x5c, 0x4d, 0x16, 0x87, 0x06,
    0x00, 0x00, 0x68, 0x5c, 0xf1, 0x07, 0x20, 0xfe, 0x80, 0xc4, 0x1f, 0x10,
    0x48, 0x92, 0x07, 0x40, 0x00, 0x00, 0x5e, 0xef, 0x4e, 0x1f, 0x87, 0x06,
    0x00, 0x00, 0x68, 0x5c, 0x4f, 0x1e, 0x87, 0x06, 0x00, 0x00, 0x68, 0x5c,
    0xf1, 0x07, 0x24, 0xfe, 0x80, 0xc4, 0x1f, 0x00, 0x50, 0x01, 0x87, 0x06,
    0x00, 0x00, 0x68, 0x5c, 0x51, 0x00, 0x87, 0x06, 0x00, 0x00, 0x68, 0x5c,
    0x63, 0x61, 0xf7, 0x0f, 0x00, 0x08, 0x10, 0x5c, 0xf0, 0x07, 0x20, 0xfe,
    0x00, 0xc4, 0x1f, 0x10, 0x07, 0x75, 0xb7, 0x05, 0x80, 0x02, 0x63, 0x4b,
    0x4c, 0x92, 0x07, 0x44, 0x00, 0x00, 0x5e, 0xef, 0x64, 0x62, 0x17, 0x07,
    0x00, 0x80, 0x10, 0x5c, 0xf1, 0x07, 0x20, 0xfe, 0x80, 0xc4, 0x1f, 0x00,
    0x0f, 0x6b, 0xb7, 0x05, 0x80, 0x02, 0x63, 0x4b, 0x52, 0x09, 0x87, 0x06,
    0x00, 0x00, 0x68, 0x5c, 0x17, 0x6e, 0xb7, 0x05, 0x80, 0x02, 0x63, 0x4b,
    0xf1, 0x07, 0x24, 0xfe, 0x00, 0xc4, 0x1f, 0x00, 0x53, 0x08, 0x87, 0x06,
    0x00, 0x00, 0x68, 0x5c, 0x1f, 0x6f, 0xb7, 0x05, 0x80, 0x02, 0x63, 0x4b,
    0x65, 0x63, 0xf7, 0x0f, 0x00, 0x08, 0x10, 0x5c, 0xf1, 0x07, 0x00, 0xfe,
    0x80, 0xc4, 0x1f, 0x00, 0x66, 0x64, 0x17, 0x07, 0x00, 0x80, 0x10, 0x5c,
    0x54, 0x11, 0x87, 0x06, 0x00, 0x00, 0x68, 0x5c, 0x50, 0x92, 0x07, 0x80,
    0x00, 0x00, 0x5e, 0xef, 0xf1, 0x07, 0x24, 0xfe, 0x80, 0xc4, 0x1f, 0x10,
    0x55, 0x10, 0x87, 0x06, 0x00, 0x00, 0x68, 0x5c, 0x56, 0x19, 0x87, 0x06,
    0x00, 0x00, 0x68, 0x5c, 0x57, 0x18, 0x87, 0x06, 0x00, 0x00, 0x68, 0x5c,
    0xf1, 0x07, 0x24, 0xfe, 0x80, 0xc4, 0x1f, 0x10, 0x58, 0x05, 0x87, 0x06,
    0x00, 0x00, 0x68, 0x5c, 0x59, 0x04, 0x87, 0x06, 0x00, 0x00, 0x68, 0x5c,
    0x5a, 0x0d, 0x87, 0x06, 0x00, 0x00, 0x68, 0x5c, 0xf0, 0x07, 0x24, 0xfe,
    0x00, 0xc4, 0x1f, 0x10, 0x5b, 0x0c, 0x87, 0x06, 0x00, 0x00, 0x68, 0x5c,
    0x54, 0x92, 0x07, 0x84, 0x00, 0x00, 0x5e, 0xef, 0x5c, 0x15, 0x87, 0x06,
    0x00, 0x00, 0x68, 0x5c, 0xf1, 0x07, 0x24, 0xfe, 0x80, 0xc0, 0x1f, 0x00,
    0x5d, 0x14, 0x87, 0x06, 0x00, 0x00, 0x68, 0x5c, 0x5e, 0x1d, 0x87, 0x06,
    0x00, 0x00, 0x68, 0x5c, 0x5f, 0x1c, 0x87, 0x06, 0x00, 0x00, 0x68, 0x5c,
    0xf1, 0x07, 0x60, 0xfe, 0x00, 0xc4, 0x1f, 0x00, 0x58, 0x92, 0x07, 0xc0,
    0x00, 0x00, 0x5e, 0xef, 0x67, 0x65, 0xf7, 0x0f, 0x00, 0x08, 0x10, 0x5c,
    0x5c, 0x92, 0x07, 0xc4, 0x00, 0x00, 0x5e, 0xef, 0xf5, 0x07, 0xa0, 0xfe,
    0x00, 0xd4, 0x1f, 0x00, 0x00, 0x00, 0x07, 0x00, 0x80, 0x1b, 0xa8, 0xf0,
    0x40, 0x00, 0x00, 0x28, 0x00, 0x00, 0x60, 0xe2, 0x00, 0x00, 0x07, 0x00,
    0x80, 0x1b, 0xa8, 0xf0, 0xf1, 0x0f, 0x24, 0xfe, 0x00, 0xc4, 0x1f, 0x10,
    0x60, 0x60, 0xd7, 0x06, 0x00, 0x80, 0x10, 0x5c, 0x07, 0x75, 0xb7, 0x05,
    0x80, 0x02, 0x63, 0x4b, 0x40, 0x23, 0x87, 0x06, 0x00, 0x00, 0x68, 0x5c,
    0xf1, 0x07, 0x20, 0xfe, 0x80, 0xc4, 0x1f, 0x00, 0x0f, 0x6b, 0xb7, 0x05,
    0x80, 0x02, 0x63, 0x4b, 0x41, 0x22, 0x87, 0x06, 0x00, 0x00, 0x68, 0x5c,
    0x17, 0x6e, 0xb7, 0x05, 0x80, 0x02, 0x63, 0x4b, 0xf1, 0x07, 0x24, 0xfe,
    0x00, 0xc4, 0x1f, 0x10, 0x42, 0x2b, 0x87, 0x06, 0x00, 0x00, 0x68, 0x5c,
    0x1f, 0x6f, 0xb7, 0x05, 0x80, 0x02, 0x63, 0x4b, 0x43, 0x2a, 0x87, 0x06,
    0x00, 0x00, 0x68, 0x5c, 0xf1, 0x07, 0x24, 0xfe, 0x00, 0xc4, 0x5f, 0x10,
    0x44, 0x33, 0x87, 0x06, 0x00, 0x00, 0x68, 0x5c, 0x61, 0x61, 0xf7, 0x0f,
    0x00, 0x08, 0x10, 0x5c, 0x62, 0x62, 0xd7, 0x06, 0x00, 0x80, 0x10, 0x5c,
    0xf0, 0x07, 0x24, 0xfe, 0x00, 0xc4, 0x1f, 0x10, 0x45, 0x32, 0x87, 0x06,
    0x00, 0x00, 0x68, 0x5c, 0x40, 0x92, 0x07, 0x00, 0x00, 0x00, 0x5e, 0xef,
    0x46, 0x3b, 0x87, 0x06, 0x00, 0x00, 0x68, 0x5c, 0xf1, 0x07, 0x24, 0xfe,
    0x80, 0xc4, 0x1f, 0x10, 0x47, 0x3a, 0x87, 0x06, 0x00, 0x00, 0x68, 0x5c,
    0x48, 0x27, 0x87, 0x06, 0x00, 0x00, 0x68, 0x5c, 0x49, 0x26, 0x87, 0x06,
    0x00, 0x00, 0x68, 0x5c, 0xf1, 0x07, 0x00, 0xfe, 0x84, 0xc4, 0x1f, 0x00,
    0x63, 0x63, 0xf7, 0x0f, 0x00, 0x08, 0x10, 0x5c, 0x64, 0x64, 0xd7, 0x06,
    0x00, 0x80, 0x10, 0x5c, 0x44, 0x92, 0x07, 0x04, 0x00, 0x00, 0x5e, 0xef,
    0xf1, 0x07, 0x24, 0xfe, 0x80, 0xc4, 0x1f, 0x10, 0x4a, 0x2f, 0x87, 0x06,
    0x00, 0x00, 0x68, 0x5c, 0x4b, 0x2e, 0x87, 0x06, 0x00, 0x00, 0x68, 0x5c,
    0x4c, 0x37, 0x87, 0x06, 0x00, 0x00, 0x68, 0x5c, 0xf1, 0x07, 0x24, 0xfe,
    0x80, 0xc0, 0x1f, 0x00, 0x4d, 0x36, 0x87, 0x06, 0x00, 0x00, 0x68, 0x5c,
    0x4e, 0x3f, 0x87, 0x06, 0x00, 0x00, 0x68, 0x5c, 0x65, 0x65, 0xf7, 0x0f,
    0x00, 0x08, 0x10, 0x5c, 0xf1, 0x07, 0x20, 0xfe, 0x08, 0xc4, 0x1f, 0x10,
    0x48, 0x92, 0x07, 0x40, 0x00, 0x00, 0x5e, 0xef, 0x66, 0x66, 0xd7, 0x06,
    0x00, 0x80, 0x10, 0x5c, 0x4f, 0x3e, 0x87, 0x06, 0x00, 0x00, 0x68, 0x5c,
    0xf1, 0x07, 0x24, 0xfe, 0x80, 0xc4, 0x1f, 0x10, 0x50, 0x21, 0x87, 0x06,
    0x00, 0x00, 0x68, 0x5c, 0x51, 0x20, 0x87, 0x06, 0x00, 0x00, 0x68, 0x5c,
    0x52, 0x29, 0x87, 0x06, 0x00, 0x00, 0x68, 0x5c, 0xf0, 0x07, 0x24, 0xfe,
    0x00, 0xc4, 0x1f, 0x00, 0x53, 0x28, 0x87, 0x06, 0x00, 0x00, 0x68, 0x5c,
    0x4c, 0x92, 0x07, 0x44, 0x00, 0x00, 0x5e, 0xef, 0x67, 0x67, 0xf7, 0x0f,
    0x00, 0x08, 0x10, 0x5c, 0xf1, 0x07, 0x24, 0xfe, 0x80, 0xc0, 0x1f, 0x10,
    0x54, 0x31, 0x87, 0x06, 0x00, 0x00, 0x68, 0x5c, 0x55, 0x30, 0x87, 0x06,
    0x00, 0x00, 0x68, 0x5c, 0x56, 0x39, 0x87, 0x06, 0x00, 0x00, 0x68, 0x5c,
    0xf1, 0x07, 0x20, 0xfe, 0x80, 0xc4, 0x1f, 0x10, 0x50, 0x92, 0x07, 0x80,
    0x00, 0x00, 0x5e, 0xef, 0x57, 0x38, 0x87, 0x06, 0x00, 0x00, 0x68, 0x5c,
    0x58, 0x25, 0x87, 0x06, 0x00, 0x00, 0x68, 0x5c, 0xf1, 0x07, 0x24, 0xfe,
    0x80, 0xc0, 0x1f, 0x10, 0x59, 0x24, 0x87, 0x06, 0x00, 0x00, 0x68, 0x5c,
    0x5a, 0x2d, 0x87, 0x06, 0x00, 0x00, 0x68, 0x5c, 0x5b, 0x2c, 0x87, 0x06,
    0x00, 0x00, 0x68, 0x5c, 0xf1, 0x07, 0x20, 0xfe, 0x80, 0xc4, 0x1f, 0x10,
    0x54, 0x92, 0x07, 0x84, 0x00, 0x00, 0x5e, 0xef, 0x5c, 0x35, 0x87, 0x06,
    0x00, 0x00, 0x68, 0x5c, 0x5d, 0x34, 0x87, 0x06, 0x00, 0x00, 0x68, 0x5c,
    0xf1, 0x07, 0x04, 0xfe, 0x00, 0xc4, 0x1f, 0x00, 0x5e, 0x3d, 0x87, 0x06,
    0x00, 0x00, 0x68, 0x5c, 0x5f, 0x3c, 0x87, 0x06, 0x00, 0x00, 0x68, 0x5c,
    0x58, 0x92, 0x07, 0xc0, 0x00, 0x00, 0x5e, 0xef, 0xf1, 0x07, 0x20, 0xfe,
    0x00, 0xc4, 0x1f, 0x00, 0x75, 0x75, 0x07, 0x01, 0x00, 0x00, 0x10, 0x38,
    0x6b, 0x6b, 0x07, 0x01, 0x00, 0x00, 0x10, 0x38, 0x6e, 0x6e, 0x07, 0x01,
    0x00, 0x00, 0x10, 0x38, 0xf0, 0x07, 0x20, 0xfe, 0x00, 0xd4, 0x1f, 0x00,
    0x6f, 0x6f, 0x07, 0x01, 0x00, 0x00, 0x10, 0x38, 0x5c, 0x92, 0x07, 0xc4,
    0x00, 0x00, 0x5e, 0xef, 0x00, 0x00, 0x07, 0x00, 0x80, 0x1b, 0xa8, 0xf0,
    0xf5, 0x07, 0xa0, 0xfe, 0x0f, 0xc0, 0x1f, 0x00, 0x40, 0x00, 0x80, 0x00,
    0x00, 0x00, 0x60, 0xe2, 0x0f, 0x00, 0x07, 0x00, 0x00, 0x00, 0x00, 0xe3,
    0x02, 0x00, 0xf8, 0x0f, 0x80, 0x07, 0x98, 0x5c, 0xf1, 0x07, 0x00, 0xfe,
    0x00, 0x44, 0x1e, 0x00, 0x02, 0x60, 0x00, 0x00, 0x00, 0xa0, 0xd4, 0xee,
    0x01, 0x00, 0xf9, 0x0f, 0x80, 0x07, 0x98, 0x5c, 0x01, 0x62, 0x01, 0x00,
    0x00, 0xa0, 0xd4, 0xee, 0xf0, 0x07, 0x20, 0xfe, 0x00, 0xc0, 0x1f, 0x00,
    0x05, 0x00, 0xfa, 0x0f, 0x80, 0x07, 0x98, 0x5c, 0x05, 0x64, 0x02, 0x00,
    0x00, 0xa0, 0xd4, 0xee, 0x09, 0x00, 0xfb, 0x0f, 0x80, 0x07, 0x98, 0x5c,
    0xb1, 0x07, 0x00, 0xfe, 0x00, 0xc4, 0x1f, 0x00, 0x09, 0x66, 0x03, 0x00,
    0x00, 0xa0, 0xd4, 0xee, 0x07, 0x75, 0xb7, 0x05, 0x00, 0x02, 0x63, 0x4b,
    0x40, 0x72, 0x07, 0x00, 0x00, 0x00, 0x4c, 0xef, 0xf1, 0x07, 0x20, 0xfe,
    0x00, 0xc4, 0x1f, 0x00, 0x41, 0x72, 0x07, 0x08, 0x00, 0x00, 0x4c, 0xef,
    0x42, 0x72, 0x07, 0x10, 0x00, 0x00, 0x4c, 0xef, 0x43, 0x72, 0x07, 0x18,
    0x00, 0x00, 0x4c, 0xef, 0xf1, 0x07, 0x20, 0xfe, 0x00, 0xc4, 0x1f, 0x00,
    0x44, 0x72, 0x07, 0x20, 0x00, 0x00, 0x4c, 0xef, 0x45, 0x72, 0x07, 0x28,
    0x00, 0x00, 0x4c, 0xef, 0x46, 0x72, 0x07, 0x30, 0x00, 0x00, 0x4c, 0xef,
    0x01, 0x07, 0x00, 0xfe, 0x00, 0xc4, 0x1f, 0x00, 0x47, 0x72, 0x07, 0x38,
    0x00, 0x00, 0x4c, 0xef, 0x0f, 0x6b, 0xb7, 0x05, 0x00, 0x02, 0x63, 0x4b,
    0x48, 0x72, 0x07, 0x04, 0x01, 0x00, 0x4c, 0xef, 0xf1, 0x07, 0x20, 0xfe,
    0x00, 0xc4, 0x1f, 0x00, 0x49, 0x72, 0x07, 0x0c, 0x01, 0x00, 0x4c, 0xef,
    0x4a, 0x72, 0x07, 0x14, 0x01, 0x00, 0x4c, 0xef, 0x4b, 0x72, 0x07, 0x1c,
    0x01, 0x00, 0x4c, 0xef, 0xf1, 0x07, 0x20, 0xfe, 0x00, 0xc4, 0x1f, 0x00,
    0x4c, 0x72, 0x07, 0x24, 0x01, 0x00, 0x4c, 0xef, 0x4d, 0x72, 0x07, 0x2c,
    0x01, 0x00, 0x4c, 0xef, 0x4e, 0x72, 0x07, 0x34, 0x01, 0x00, 0x4c, 0xef,
    0x21, 0x07, 0x00, 0xfe, 0x00, 0xc4, 0x1f, 0x00, 0x4f, 0x72, 0x07, 0x3c,
    0x01, 0x00, 0x4c, 0xef, 0x17, 0x6e, 0xb7, 0x05, 0x00, 0x02, 0x63, 0x4b,
    0x50, 0x72, 0x07, 0x08, 0x02, 0x00, 0x4c, 0xef, 0xf1, 0x07, 0x20, 0xfe,
    0x00, 0xc4, 0x1f, 0x00, 0x51, 0x72, 0x07, 0x10, 0x02, 0x00, 0x4c, 0xef,
    0x52, 0x72, 0x07, 0x18, 0x02, 0x00, 0x4c, 0xef, 0x53, 0x72, 0x07, 0x20,
    0x02, 0x00, 0x4c, 0xef, 0xf1, 0x07, 0x20, 0xfe, 0x00, 0xc4, 0x1f, 0x00,
    0x54, 0x72, 0x07, 0x28, 0x02, 0x00, 0x4c, 0xef, 0x55, 0x72, 0x07, 0x30,
    0x02, 0x00, 0x4c, 0xef, 0x56, 0x72, 0x07, 0x38, 0x02, 0x00, 0x4c, 0xef,
    0x41, 0x07, 0x00, 0xfe, 0x00, 0xc4, 0x1f, 0x00, 0x57, 0x72, 0x07, 0x40,
    0x02, 0x00, 0x4c, 0xef, 0x1f, 0x6f, 0xb7, 0x05, 0x00, 0x02, 0x63, 0x4b,
    0x58, 0x72, 0x07, 0x0c, 0x03, 0x00, 0x4c, 0xef, 0xf1, 0x07, 0x20, 0xfe,
    0x00, 0xc4, 0x1f, 0x00, 0x59, 0x72, 0x07, 0x14, 0x03, 0x00, 0x4c, 0xef,
    0x5a, 0x72, 0x07, 0x1c, 0x03, 0x00, 0x4c, 0xef, 0x5b, 0x72, 0x07, 0x24,
    0x03, 0x00, 0x4c, 0xef, 0xf1, 0x07, 0x20, 0xfe, 0x00, 0xc4, 0x1f, 0x00,
    0x5c, 0x72, 0x07, 0x2c, 0x03, 0x00, 0x4c, 0xef, 0x5d, 0x72, 0x07, 0x34,
    0x03, 0x00, 0x4c, 0xef, 0x5e, 0x72, 0x07, 0x3c, 0x03, 0x00, 0x4c, 0xef,
    0x61, 0x07, 0x20, 0xfe, 0x01, 0xc4, 0x1f, 0x00, 0x5f, 0x72, 0x07, 0x44,
    0x03, 0x00, 0x4c, 0xef, 0x40, 0x40, 0x17, 0x04, 0x00, 0x00, 0x58, 0x5c,
    0x42, 0x42, 0x37, 0x04, 0x00, 0x00, 0x58, 0x5c, 0xf1, 0x07, 0x20, 0xfe,
    0x00, 0xc4, 0x5f, 0x00, 0x44, 0x44, 0x57, 0x04, 0x00, 0x00, 0x58, 0x5c,
    0x46, 0x46, 0x77, 0x04, 0x00, 0x00, 0x58, 0x5c, 0x48, 0x48, 0x97, 0x04,
    0x00, 0x00, 0x58, 0x5c, 0xf1, 0x07, 0x20, 0xfe, 0x00, 0xc4, 0x1f, 0x00,
    0x4a, 0x4a, 0xb7, 0x04, 0x00, 0x00, 0x58, 0x5c, 0x4c, 0x4c, 0xd7, 0x04,
    0x00, 0x00, 0x58, 0x5c, 0x4e, 0x4e, 0xf7, 0x04, 0x00, 0x00, 0x58, 0x5c,
    0xf1, 0x27, 0x20, 0xfe, 0x00, 0xc4, 0x1f, 0x00, 0x50, 0x50, 0x17, 0x05,
    0x00, 0x00, 0x58, 0x5c, 0x52, 0x52, 0x37, 0x05, 0x00, 0x00, 0x58, 0x5c,
    0x54, 0x54, 0x57, 0x05, 0x00, 0x00, 0x58, 0x5c, 0xf1, 0x07, 0x20, 0xfe,
    0x08, 0xc4, 0x1f, 0x00, 0x56, 0x56, 0x77, 0x05, 0x00, 0x00, 0x58, 0x5c,
    0x58, 0x58, 0x97, 0x05, 0x00, 0x00, 0x58, 0x5c, 0x5a, 0x5a, 0xb7, 0x05,
    0x00, 0x00, 0x58, 0x5c, 0xf1, 0x07, 0x20, 0xfe, 0x00, 0xc4, 0x1f, 0x00,
    0x5c, 0x5c, 0xd7, 0x05, 0x00, 0x00, 0x58, 0x5c, 0x5e, 0x5e, 0xf7, 0x05,
    0x00, 0x00, 0x58, 0x5c, 0x40, 0x40, 0x27, 0x04, 0x00, 0x00, 0x58, 0x5c,
    0xf1, 0x07, 0x20, 0xfe, 0x00, 0xc4, 0x1f, 0x00, 0x44, 0x44, 0x67, 0x04,
    0x00, 0x00, 0x58, 0x5c, 0x48, 0x48, 0xa7, 0x04, 0x00, 0x00, 0x58, 0x5c,
    0x4c, 0x4c, 0xe7, 0x04, 0x00, 0x00, 0x58, 0x5c, 0xf1, 0x07, 0x20, 0xfe,
    0x00, 0xc4, 0x1f, 0x00, 0x50, 0x50, 0x27, 0x05, 0x00, 0x00, 0x58, 0x5c,
    0x54, 0x54, 0x67, 0x05, 0x00, 0x00, 0x58, 0x5c, 0x58, 0x58, 0xa7, 0x05,
    0x00, 0x00, 0x58, 0x5c, 0xf1, 0x07, 0x20, 0xfe, 0x00, 0xc8, 0x1f, 0x00,
    0x5c, 0x5c, 0xe7, 0x05, 0x00, 0x00, 0x58, 0x5c, 0x40, 0x40, 0x47, 0x04,
    0x00, 0x00, 0x58, 0x5c, 0x48, 0x48, 0xc7, 0x04, 0x00, 0x00, 0x58, 0x5c,
    0xf2, 0x07, 0x20, 0xfe, 0x00, 0xc4, 0x3f, 0x12, 0x50, 0x50, 0x47, 0x05,
    0x00, 0x00, 0x58, 0x5c, 0x58, 0x58, 0xc7, 0x05, 0x00, 0x00, 0x58, 0x5c,
    0x02, 0x02, 0x97, 0x06, 0x00, 0x20, 0x80, 0x59, 0xf2, 0x17, 0x44, 0xfe,
    0xa4, 0xc4, 0x1f, 0x01, 0x01, 0x01, 0x97, 0x06, 0x00, 0x24, 0x80, 0x59,
    0x05, 0x05, 0x97, 0x06, 0x00, 0x28, 0x80, 0x59, 0x09, 0x09, 0x97, 0x06,
    0x00, 0x2c, 0x80, 0x59, 0xf1, 0x08, 0x20, 0x3e, 0x02, 0xc4, 0x8b, 0x00,
    0x02, 0x60, 0x00, 0x00, 0x00, 0x60, 0xdc, 0xee, 0x01, 0x62, 0x01, 0x00,
    0x00, 0x60, 0xdc, 0xee, 0x05, 0x64, 0x02, 0x00, 0x00, 0x60, 0xdc, 0xee,
    0xf1, 0x43, 0xa0, 0xfe, 0x00, 0xfc, 0x1f, 0x00, 0x09, 0x66, 0x03, 0x00,
    0x00, 0x60, 0xdc, 0xee, 0x0f, 0x00, 0x07, 0x00, 0x00, 0x00, 0x20, 0xe3,
    0x0f, 0x00, 0x87, 0xff, 0xff, 0x0f, 0x40, 0xe2, 0x00, 0x00, 0x00, 0x00,
    0x00, 0x00, 0x00, 0x00, 0x00, 0x00, 0x00, 0x00, 0x00, 0x00, 0x00, 0x00,
    0x00, 0x00, 0x00, 0x00, 0x00, 0x00, 0x00, 0x00, 0x00, 0x00, 0x00, 0x00,
    0x00, 0x00, 0x00, 0x00, 0x00, 0x00, 0x00, 0x00, 0x00, 0x00, 0x00, 0x00,
    0x00, 0x00, 0x00, 0x00, 0x00, 0x00, 0x00, 0x00, 0x00, 0x00, 0x00, 0x00,
    0x00, 0x00, 0x00, 0x00, 0x00, 0x00, 0x00, 0x00, 0x00, 0x00, 0x00, 0x00,
    0x01, 0x00, 0x00, 0x00, 0x03, 0x00, 0x00, 0x00, 0x00, 0x00, 0x00, 0x00,
    0x00, 0x00, 0x00, 0x00, 0x00, 0x00, 0x00, 0x00, 0x00, 0x00, 0x00, 0x00,
    0x40, 0x00, 0x00, 0x00, 0x00, 0x00, 0x00, 0x00, 0xa2, 0x00, 0x00, 0x00,
    0x00, 0x00, 0x00, 0x00, 0x00, 0x00, 0x00, 0x00, 0x00, 0x00, 0x00, 0x00,
    0x01, 0x00, 0x00, 0x00, 0x00, 0x00, 0x00, 0x00, 0x00, 0x00, 0x00, 0x00,
    0x00, 0x00, 0x00, 0x00, 0x0b, 0x00, 0x00, 0x00, 0x03, 0x00, 0x00, 0x00,
    0x00, 0x00, 0x00, 0x00, 0x00, 0x00, 0x00, 0x00, 0x00, 0x00, 0x00, 0x00,
    0x00, 0x00, 0x00, 0x00, 0xe2, 0x00, 0x00, 0x00, 0x00, 0x00, 0x00, 0x00,
    0xc8, 0x00, 0x00, 0x00, 0x00, 0x00, 0x00, 0x00, 0x00, 0x00, 0x00, 0x00,
    0x00, 0x00, 0x00, 0x00, 0x01, 0x00, 0x00, 0x00, 0x00, 0x00, 0x00, 0x00,
    0x00, 0x00, 0x00, 0x00, 0x00, 0x00, 0x00, 0x00, 0x13, 0x00, 0x00, 0x00,
    0x02, 0x00, 0x00, 0x00, 0x00, 0x00, 0x00, 0x00, 0x00, 0x00, 0x00, 0x00,
    0x00, 0x00, 0x00, 0x00, 0x00, 0x00, 0x00, 0x00, 0xb0, 0x01, 0x00, 0x00,
    0x00, 0x00, 0x00, 0x00, 0x78, 0x00, 0x00, 0x00, 0x00, 0x00, 0x00, 0x00,
    0x02, 0x00, 0x00, 0x00, 0x03, 0x00, 0x00, 0x00, 0x08, 0x00, 0x00, 0x00,
    0x00, 0x00, 0x00, 0x00, 0x18, 0x00, 0x00, 0x00, 0x00, 0x00, 0x00, 0x00,
    0x29, 0x00, 0x00, 0x00, 0x00, 0x00, 0x00, 0x70, 0x00, 0x00, 0x00, 0x00,
    0x00, 0x00, 0x00, 0x00, 0x00, 0x00, 0x00, 0x00, 0x00, 0x00, 0x00, 0x00,
    0x28, 0x02, 0x00, 0x00, 0x00, 0x00, 0x00, 0x00, 0x24, 0x00, 0x00, 0x00,
    0x00, 0x00, 0x00, 0x00, 0x03, 0x00, 0x00, 0x00, 0x00, 0x00, 0x00, 0x00,
    0x04, 0x00, 0x00, 0x00, 0x00, 0x00, 0x00, 0x00, 0x00, 0x00, 0x00, 0x00,
    0x00, 0x00, 0x00, 0x00, 0x4a, 0x00, 0x00, 0x00, 0x00, 0x00, 0x00, 0x70,
    0x00, 0x00, 0x00, 0x00, 0x00, 0x00, 0x00, 0x00, 0x00, 0x00, 0x00, 0x00,
    0x00, 0x00, 0x00, 0x00, 0x4c, 0x02, 0x00, 0x00, 0x00, 0x00, 0x00, 0x00,
    0x10, 0x01, 0x00, 0x00, 0x00, 0x00, 0x00, 0x00, 0x03, 0x00, 0x00, 0x00,
    0x07, 0x00, 0x00, 0x00, 0x04, 0x00, 0x00, 0x00, 0x00, 0x00, 0x00, 0x00,
    0x00, 0x00, 0x00, 0x00, 0x00, 0x00, 0x00, 0x00, 0x82, 0x00, 0x00, 0x00,
    0x01, 0x00, 0x00, 0x00, 0x02, 0x00, 0x00, 0x00, 0x00, 0x00, 0x00, 0x00,
    0x00, 0x00, 0x00, 0x00, 0x00, 0x00, 0x00, 0x00, 0x5c, 0x03, 0x00, 0x00,
    0x00, 0x00, 0x00, 0x00, 0x80, 0x01, 0x00, 0x00, 0x00, 0x00, 0x00, 0x00,
    0x00, 0x00, 0x00, 0x00, 0x07, 0x00, 0x00, 0x00, 0x04, 0x00, 0x00, 0x00,
    0x00, 0x00, 0x00, 0x00, 0x00, 0x00, 0x00, 0x00, 0x00, 0x00, 0x00, 0x00,
    0x32, 0x00, 0x00, 0x00, 0x01, 0x00, 0x00, 0x00, 0x06, 0x00, 0x10, 0x00,
    0x00, 0x00, 0x00, 0x00, 0x00, 0x00, 0x00, 0x00, 0x00, 0x00, 0x00, 0x00,
    0xe0, 0x04, 0x00, 0x00, 0x00, 0x00, 0x00, 0x00, 0x80, 0x1e, 0x00, 0x00,
    0x00, 0x00, 0x00, 0x00, 0x03, 0x00, 0x00, 0x00, 0x04, 0x00, 0x00, 0x99,
    0x20, 0x00, 0x00, 0x00, 0x00, 0x00, 0x00, 0x00, 0x00, 0x00, 0x00, 0x00,
    0x00, 0x00, 0x00, 0x00, 0x65, 0x00, 0x00, 0x00, 0x08, 0x00, 0x00, 0x00,
    0x03, 0x00, 0x00, 0x00, 0x00, 0x00, 0x00, 0x00, 0x00, 0x00, 0x00, 0x00,
    0x00, 0x00, 0x00, 0x00, 0x60, 0x23, 0x00, 0x00, 0x00, 0x00, 0x00, 0x00,
    0x10, 0x42, 0x00, 0x00, 0x00, 0x00, 0x00, 0x00, 0x00, 0x00, 0x00, 0x00,
    0x07, 0x00, 0x00, 0x00, 0x04, 0x00, 0x00, 0x00, 0x00, 0x00, 0x00, 0x00,
    0x00, 0x00, 0x00, 0x00, 0x00, 0x00, 0x00, 0x00, 0x06, 0x00, 0x00, 0x00,
    0x05, 0x00, 0x00, 0x00, 0xa0, 0x25, 0x00, 0x00, 0x00, 0x00, 0x00, 0x00,
    0x00, 0x00, 0x00, 0x00, 0x00, 0x00, 0x00, 0x00, 0x00, 0x00, 0x00, 0x00,
    0x00, 0x00, 0x00, 0x00, 0xa8, 0x00, 0x00, 0x00, 0x00, 0x00, 0x00, 0x00,
    0xa8, 0x00, 0x00, 0x00, 0x00, 0x00, 0x00, 0x00, 0x08, 0x00, 0x00, 0x00,
    0x00, 0x00, 0x00, 0x00, 0x01, 0x00, 0x00, 0x00, 0x05, 0x00, 0x00, 0x00,
    0x5c, 0x03, 0x00, 0x00, 0x00, 0x00, 0x00, 0x00, 0x00, 0x00, 0x00, 0x00,
    0x00, 0x00, 0x00, 0x00, 0x00, 0x00, 0x00, 0x00, 0x00, 0x00, 0x00, 0x00,
    0x00, 0x20, 0x00, 0x00, 0x00, 0x00, 0x00, 0x00, 0x00, 0x20, 0x00, 0x00,
    0x00, 0x00, 0x00, 0x00, 0x08, 0x00, 0x00, 0x00, 0x00, 0x00, 0x00, 0x00,
    0x01, 0x00, 0x00, 0x00, 0x06, 0x00, 0x00, 0x00, 0x60, 0x23, 0x00, 0x00,
    0x00, 0x00, 0x00, 0x00, 0x00, 0x00, 0x00, 0x00, 0x00, 0x00, 0x00, 0x00,
    0x00, 0x00, 0x00, 0x00, 0x00, 0x00, 0x00, 0x00, 0x00, 0x00, 0x00, 0x00,
    0x00, 0x00, 0x00, 0x00, 0x10, 0x42, 0x00, 0x00, 0x00, 0x00, 0x00, 0x00,
    0x08, 0x00, 0x00, 0x00, 0x00, 0x00, 0x00, 0x00,
};